{
  "version": "1.0",
  "truncation": null,
  "padding": null,
  "added_tokens": [
    {
      "id": 0,
      "special": true,
      "content": "<|endoftext|>",
      "single_word": false,
      "lstrip": false,
      "rstrip": false,
      "normalized": false
    },
    {
      "id": 1,
      "special": true,
      "content": "<|padding|>",
      "single_word": false,
      "lstrip": false,
      "rstrip": false,
      "normalized": false
    }
  ],
  "normalizer": {
    "type": "NFKC"
  },
  "pre_tokenizer": {
    "type": "ByteLevel",
    "add_prefix_space": true,
    "trim_offsets": true
  },
  "post_processor": {
    "type": "ByteLevel",
    "add_prefix_space": true,
    "trim_offsets": true
  },
  "decoder": {
    "type": "ByteLevel",
    "add_prefix_space": true,
    "trim_offsets": true
  },
  "model": {
    "dropout": null,
    "unk_token": null,
    "continuing_subword_prefix": null,
    "end_of_word_suffix": null,
    "fuse_unk": false,
    "vocab": {
      "<|endoftext|>": 0,
      "<|padding|>": 1,
      "!": 2,
      "\"": 3,
      "#": 4,
      "$": 5,
      "%": 6,
      "&": 7,
      "'": 8,
      "(": 9,
      ")": 10,
      "*": 11,
      "+": 12,
      ",": 13,
      "-": 14,
      ".": 15,
      "/": 16,
      "0": 17,
      "1": 18,
      "2": 19,
      "3": 20,
      "4": 21,
      "5": 22,
      "6": 23,
      "7": 24,
      "8": 25,
      "9": 26,
      ":": 27,
      ";": 28,
      "<": 29,
      "=": 30,
      ">": 31,
      "?": 32,
      "@": 33,
      "A": 34,
      "B": 35,
      "C": 36,
      "D": 37,
      "E": 38,
      "F": 39,
      "G": 40,
      "H": 41,
      "I": 42,
      "J": 43,
      "K": 44,
      "L": 45,
      "M": 46,
      "N": 47,
      "O": 48,
      "P": 49,
      "Q": 50,
      "R": 51,
      "S": 52,
      "T": 53,
      "U": 54,
      "V": 55,
      "W": 56,
      "X": 57,
      "Y": 58,
      "Z": 59,
      "[": 60,
      "\\": 61,
      "]": 62,
      "^": 63,
      "_": 64,
      "`": 65,
      "a": 66,
      "b": 67,
      "c": 68,
      "d": 69,
      "e": 70,
      "f": 71,
      "g": 72,
      "h": 73,
      "i": 74,
      "j": 75,
      "k": 76,
      "l": 77,
      "m": 78,
      "n": 79,
      "o": 80,
      "p": 81,
      "q": 82,
      "r": 83,
      "s": 84,
      "t": 85,
      "u": 86,
      "v": 87,
      "w": 88,
      "x": 89,
      "y": 90,
      "z": 91,
      "{": 92,
      "|": 93,
      "}": 94,
      "~": 95,
      "¡": 96,
      "¢": 97,
      "£": 98,
      "¤": 99,
      "¥": 100,
      "¦": 101,
      "§": 102,
      "¨": 103,
      "©": 104,
      "ª": 105,
      "«": 106,
      "¬": 107,
      "®": 108,
      "¯": 109,
      "°": 110,
      "±": 111,
      "²": 112,
      "³": 113,
      "´": 114,
      "µ": 115,
      "¶": 116,
      "·": 117,
      "¸": 118,
      "¹": 119,
      "º": 120,
      "»": 121,
      "¼": 122,
      "½": 123,
      "¾": 124,
      "¿": 125,
      "Â": 126,
      "Ã": 127,
      "Ä": 128,
      "Å": 129,
      "Æ": 130,
      "Ç": 131,
      "È": 132,
      "É": 133,
      "Ê": 134,
      "Ë": 135,
      "Ì": 136,
      "Í": 137,
      "Î": 138,
      "Ï": 139,
      "Ð": 140,
      "Ñ": 141,
      "Ò": 142,
      "Ó": 143,
      "Ô": 144,
      "Õ": 145,
      "Ö": 146,
      "×": 147,
      "Ø": 148,
      "Ù": 149,
      "Ú": 150,
      "Û": 151,
      "Ü": 152,
      "Ý": 153,
      "Þ": 154,
      "ß": 155,
      "à": 156,
      "á": 157,
      "â": 158,
      "ã": 159,
      "ä": 160,
      "å": 161,
      "æ": 162,
      "ç": 163,
      "è": 164,
      "é": 165,
      "ê": 166,
      "ë": 167,
      "ì": 168,
      "í": 169,
      "î": 170,
      "ï": 171,
      "ð": 172,
      "ñ": 173,
      "ó": 174,
      "ô": 175,
      "Ā": 176,
      "ā": 177,
      "Ă": 178,
      "ă": 179,
      "Ą": 180,
      "ą": 181,
      "Ć": 182,
      "ć": 183,
      "Ĉ": 184,
      "ĉ": 185,
      "Ċ": 186,
      "ċ": 187,
      "Č": 188,
      "Ď": 189,
      "ď": 190,
      "Đ": 191,
      "đ": 192,
      "ē": 193,
      "Ĕ": 194,
      "ė": 195,
      "Ę": 196,
      "ę": 197,
      "Ě": 198,
      "Ĝ": 199,
      "ĝ": 200,
      "Ğ": 201,
      "ğ": 202,
      "Ġ": 203,
      "ġ": 204,
      "Ģ": 205,
      "ģ": 206,
      "Ĥ": 207,
      "ĥ": 208,
      "Ħ": 209,
      "ħ": 210,
      "Ĩ": 211,
      "ĩ": 212,
      "Ī": 213,
      "ī": 214,
      "Ĭ": 215,
      "ĭ": 216,
      "Į": 217,
      "į": 218,
      "İ": 219,
      "ı": 220,
      "Ĳ": 221,
      "ĳ": 222,
      "Ĵ": 223,
      "ĵ": 224,
      "Ķ": 225,
      "ķ": 226,
      "ĸ": 227,
      "Ĺ": 228,
      "ĺ": 229,
      "Ļ": 230,
      "ļ": 231,
      "Ľ": 232,
      "ľ": 233,
      "Ŀ": 234,
      "ŀ": 235,
      "Ł": 236,
      "ł": 237,
      "Ń": 238,
      "an": 239,
      "Ġd": 240,
      "er": 241,
      "en": 242,
      "Ġm": 243,
      "Ġs": 244,
      "ang": 245,
      "ar": 246,
      "at": 247,
      "in": 248,
      "Ġb": 249,
      "ak": 250,
      "Ġp": 251,
      "Ġk": 252,
      "ah": 253,
      "Ġt": 254,
      "al": 255,
      "un": 256,
      "as": 257,
      "em": 258,
      "am": 259,
      "ya": 260,
      "Ġdi": 261,
      "Ġy": 262,
      "eng": 263,
      "Ġyang": 264,
      "ad": 265,
      "tu": 266,
      "kan": 267,
      "el": 268,
      "ap": 269,
      "Ġse": 270,
      "is": 271,
      "ik": 272,
      "Ġmen": 273,
      "Ġl": 274,
      "Ġdan": 275,
      "Ġber": 276,
      "ga": 277,
      "il": 278,
      "it": 279,
      "es": 280,
      "nya": 281,
      "ing": 282,
      "Ġh": 283,
      "Ġmem": 284,
      "Ġter": 285,
      "Ġj": 286,
      "eb": 287,
      "on": 288,
      "akan": 289,
      "us": 290,
      "Ġin": 291,
      "ĠS": 292,
      "ari": 293,
      "or": 294,
      "ĠA": 295,
      "Ġke": 296,
      "engan": 297,
      "id": 298,
      "ut": 299,
      "ur": 300,
      "tuk": 301,
      "ih": 302,
      "ada": 303,
      "da": 304,
      "Ġdengan": 305,
      "Ġper": 306,
      "Ġmeng": 307,
      "Ġun": 308,
      "Ġini": 309,
      "ul": 310,
      "ĠP": 311,
      "uk": 312,
      "um": 313,
      "ir": 314,
      "ung": 315,
      "ek": 316,
      "Ġuntuk": 317,
      "et": 318,
      "ol": 319,
      "ĠK": 320,
      "ara": 321,
      "ti": 322,
      "ag": 323,
      "au": 324,
      "ĠB": 325,
      "Ġdari": 326,
      "Ġr": 327,
      "itu": 328,
      "ĠM": 329,
      "ai": 330,
      "alah": 331,
      "asi": 332,
      "alam": 333,
      "ud": 334,
      "Ġc": 335,
      "ba": 336,
      "ia": 337,
      "ĠD": 338,
      "ĠT": 339,
      "im": 340,
      "ain": 341,
      "idak": 342,
      "Ġsa": 343,
      "bu": 344,
      "Ġn": 345,
      "Ġtidak": 346,
      "adi": 347,
      "anya": 348,
      "Ġpen": 349,
      "Ġbis": 350,
      "om": 351,
      "ama": 352,
      "si": 353,
      "apat": 354,
      "Ġad": 355,
      "per": 356,
      "Ġan": 357,
      "Ġg": 358,
      "wa": 359,
      "ĠI": 360,
      "Ġbisa": 361,
      "ta": 362,
      "âĢ": 363,
      "Ġakan": 364,
      "Ġitu": 365,
      "Ġat": 366,
      "up": 367,
      "ian": 368,
      "ja": 369,
      "ro": 370,
      "ĠAn": 371,
      "ukan": 372,
      "Ġmer": 373,
      "Ġdalam": 374,
      "eh": 375,
      "amp": 376,
      "ĠJ": 377,
      "ok": 378,
      "Ġadalah": 379,
      "ita": 380,
      "Ġju": 381,
      "Ġpada": 382,
      "angan": 383,
      "Ġw": 384,
      "Ġjuga": 385,
      "Ġmel": 386,
      "yak": 387,
      "ep": 388,
      "ĠAnda": 389,
      "Ġpem": 390,
      "jadi": 391,
      "Ġmas": 392,
      "udah": 393,
      "uh": 394,
      "ena": 395,
      "Ġatau": 396,
      "orang": 397,
      "Ġkar": 398,
      "atan": 399,
      "apa": 400,
      "Ġ(": 401,
      "atu": 402,
      "ed": 403,
      "ebih": 404,
      "Ġmemb": 405,
      "Ġkam": 406,
      "Ġdapat": 407,
      "ika": 408,
      "eg": 409,
      "ent": 410,
      "Ġf": 411,
      "ab": 412,
      "Ġbah": 413,
      "gai": 414,
      "Ġada": 415,
      "ali": 416,
      "ĠR": 417,
      "ĠH": 418,
      "aw": 419,
      "ebut": 420,
      "Ġters": 421,
      "ot": 422,
      "..": 423,
      "ana": 424,
      "ata": 425,
      "agi": 426,
      "Ġhar": 427,
      "Ġak": 428,
      "ay": 429,
      "and": 430,
      "asa": 431,
      "Ġ2": 432,
      "end": 433,
      "Ġsem": 434,
      "ĠN": 435,
      "Ġlebih": 436,
      "Ġpeng": 437,
      "oleh": 438,
      "bagai": 439,
      "ĠC": 440,
      "ua": 441,
      "Ġ1": 442,
      "Ġsek": 443,
      "ĠIn": 444,
      "Ġmenjadi": 445,
      "ikan": 446,
      "Ġban": 447,
      "Ġkita": 448,
      "Ġsel": 449,
      "Ġkarena": 450,
      "elah": 451,
      "ant": 452,
      "ĠâĢ": 453,
      "amb": 454,
      "ĠL": 455,
      "Ġmeny": 456,
      "Ġpro": 457,
      "ter": 458,
      "inya": 459,
      "ilik": 460,
      "alu": 461,
      "Ġtersebut": 462,
      "emb": 463,
      "Ġsudah": 464,
      "Ġanda": 465,
      "Ġba": 466,
      "angat": 467,
      "emp": 468,
      "Ġoleh": 469,
      "ĠU": 470,
      "eka": 471,
      "api": 472,
      "os": 473,
      "ri": 474,
      "lah": 475,
      "akukan": 476,
      "Ġser": 477,
      "Ġsaya": 478,
      "Ġbanyak": 479,
      "Ġtah": 480,
      "aya": 481,
      "gun": 482,
      "isi": 483,
      "Ġorang": 484,
      "Ġlain": 485,
      "ati": 486,
      "aran": 487,
      "ĠG": 488,
      "gi": 489,
      "aj": 490,
      "iliki": 491,
      "angg": 492,
      "ub": 493,
      "Ġsangat": 494,
      "angk": 495,
      "Ġmend": 496,
      "uan": 497,
      "Ġsatu": 498,
      "ac": 499,
      "ob": 500,
      "perti": 501,
      "Ġseb": 502,
      "buat": 503,
      "Ġsebagai": 504,
      "Ġdis": 505,
      "alan": 506,
      "Ġmereka": 507,
      "iri": 508,
      "Ġmemiliki": 509,
      "eber": 510,
      "Ġbahwa": 511,
      "ip": 512,
      "Ġsaat": 513,
      "00": 514,
      "itas": 515,
      "Ġharus": 516,
      "Ġkel": 517,
      "Ġmak": 518,
      "Ġseperti": 519,
      "tr": 520,
      "ahan": 521,
      "Ġkem": 522,
      "Ġkami": 523,
      "cara": 524,
      "Ġmenc": 525,
      "ingga": 526,
      "od": 527,
      "gunakan": 528,
      "elum": 529,
      "Ġkep": 530,
      "ĠW": 531,
      "Ġbaik": 532,
      "Ġkon": 533,
      "unya": 534,
      "asil": 535,
      "ungan": 536,
      "aman": 537,
      "ib": 538,
      "og": 539,
      "Ġtahun": 540,
      "Ġdil": 541,
      "esar": 542,
      "aan": 543,
      "âĢĿ": 544,
      "eberapa": 545,
      "Ġsaja": 546,
      "Ġhal": 547,
      "lin": 548,
      "Ġbar": 549,
      "ĠF": 550,
      "Ġhanya": 551,
      "Ġmembuat": 552,
      "anj": 553,
      "uj": 554,
      "ĠO": 555,
      "ong": 556,
      "Ġpas": 557,
      "ĠInd": 558,
      "Ġdik": 559,
      "ingk": 560,
      "op": 561,
      "Ġkes": 562,
      "Ġker": 563,
      "ĠâĢľ": 564,
      "Ġag": 565,
      "duk": 566,
      "Ġsed": 567,
      "uar": 568,
      "ingin": 569,
      "ihat": 570,
      "ones": 571,
      "ungk": 572,
      "main": 573,
      "empat": 574,
      "Ġya": 575,
      "onesia": 576,
      "Ġses": 577,
      "Ġdib": 578,
      "01": 579,
      "Ġpara": 580,
      "Ġbeberapa": 581,
      "amun": 582,
      "Ġbers": 583,
      "Ġberk": 584,
      "asan": 585,
      "ota": 586,
      "Ġkamu": 587,
      "ala": 588,
      "usah": 589,
      "Ġseh": 590,
      "Ġmember": 591,
      "ilih": 592,
      "line": 593,
      "utu": 594,
      "ew": 595,
      "Ġsecara": 596,
      "Ġpert": 597,
      "Ġv": 598,
      "ĠIndonesia": 599,
      "orm": 600,
      "Ġmaka": 601,
      "Ġkal": 602,
      "Ġmengh": 603,
      "int": 604,
      "ĠPer": 605,
      "Ġpel": 606,
      "Ġjika": 607,
      "enar": 608,
      "Ġsamp": 609,
      "Ġket": 610,
      "ist": 611,
      "Ġtent": 612,
      "ĠY": 613,
      "angkan": 614,
      "Ġberb": 615,
      "Ġtelah": 616,
      "ĠE": 617,
      "uran": 618,
      "agian": 619,
      "ĠUn": 620,
      "Ġtet": 621,
      "oh": 622,
      "ku": 623,
      "buh": 624,
      "art": 625,
      "entu": 626,
      "aktu": 627,
      "Ġmasih": 628,
      "ungkin": 629,
      "Ġsalah": 630,
      "Ġterl": 631,
      "ikasi": 632,
      "yar": 633,
      "ind": 634,
      "Ġ201": 635,
      "Ġmelakukan": 636,
      "Ġaku": 637,
      "umah": 638,
      "Ġmenggunakan": 639,
      "Ġbesar": 640,
      "Ġset": 641,
      "Ġlagi": 642,
      "Ġap": 643,
      "arkan": 644,
      "Ġpr": 645,
      "annya": 646,
      "Ġkeb": 647,
      "angs": 648,
      "ingg": 649,
      "ikut": 650,
      "Ġtak": 651,
      "Ġon": 652,
      "Ġbi": 653,
      "Ġsend": 654,
      "Ġapa": 655,
      "Ġanak": 656,
      "Ġdit": 657,
      "Ġtan": 658,
      "ual": 659,
      "...": 660,
      "Ġpemb": 661,
      "ĠAl": 662,
      "Ġsu": 663,
      "Ġmendapat": 664,
      "arang": 665,
      "Ġcara": 666,
      "Ġdim": 667,
      "Ġingin": 668,
      "hir": 669,
      "ini": 670,
      "imp": 671,
      "Ġsemua": 672,
      "ra": 673,
      "omp": 674,
      "Ġhari": 675,
      "Ġ3": 676,
      "ĠSel": 677,
      "aat": 678,
      "ses": 679,
      "Ġwaktu": 680,
      "epat": 681,
      "ec": 682,
      "uang": 683,
      "Ġdia": 684,
      "Ġal": 685,
      "Ġbagi": 686,
      "Ġa": 687,
      "Ġproduk": 688,
      "Ġsi": 689,
      "Ġonline": 690,
      "unj": 691,
      "Ġas": 692,
      "Ġsendiri": 693,
      "Ġdip": 694,
      "pun": 695,
      "Ġyaitu": 696,
      "Ġserta": 697,
      "uka": 698,
      "Ġterb": 699,
      "ahkan": 700,
      "ulai": 701,
      "Ġsampai": 702,
      "pa": 703,
      "apan": 704,
      "ic": 705,
      "Ġkec": 706,
      "Ġman": 707,
      "Ġpun": 708,
      "anan": 709,
      "Ġbaru": 710,
      "Ġrumah": 711,
      "buah": 712,
      "Ġbel": 713,
      "upakan": 714,
      "Ġtentang": 715,
      "Ġpes": 716,
      "ting": 717,
      "lu": 718,
      "Ġsebuah": 719,
      "eda": 720,
      "idup": 721,
      "Ġpend": 722,
      "Ġtr": 723,
      "Ġtempat": 724,
      "Ġmemper": 725,
      "ingkat": 726,
      "eri": 727,
      "Ġmau": 728,
      "Ġsesu": 729,
      "udi": 730,
      "jalan": 731,
      "ami": 732,
      "Ġlainnya": 733,
      "erja": 734,
      "ui": 735,
      "Ġsama": 736,
      "ukup": 737,
      "uhan": 738,
      "na": 739,
      "baik": 740,
      "tar": 741,
      "Ġharga": 742,
      "akat": 743,
      "Ġmerupakan": 744,
      "onal": 745,
      ").": 746,
      "form": 747,
      "Ġmemberikan": 748,
      "Ġmendapatkan": 749,
      "Ġatas": 750,
      "aling": 751,
      "ĠUntuk": 752,
      "mas": 753,
      "Ġkepada": 754,
      "Ġagar": 755,
      "Ġdilakukan": 756,
      "ingan": 757,
      "Ġberbagai": 758,
      "Ġberh": 759,
      "usia": 760,
      "Ġbu": 761,
      "apkan": 762,
      "Ġmakan": 763,
      "engk": 764,
      "Ġseti": 765,
      "ulan": 766,
      "atakan": 767,
      "Ġbert": 768,
      "ĠBer": 769,
      "Ġsehingga": 770,
      "Ġ\"": 771,
      "ow": 772,
      "unia": 773,
      "Ġkh": 774,
      "Ġcukup": 775,
      "Ġsekali": 776,
      "angsung": 777,
      "Ġpern": 778,
      "af": 779,
      "arah": 780,
      "aks": 781,
      "Ġsej": 782,
      "ĠâĢĵ": 783,
      "era": 784,
      "tor": 785,
      "Ġ-": 786,
      "gr": 787,
      "Ġmemang": 788,
      "Ġbukan": 789,
      "Ġsebelum": 790,
      "Ġtu": 791,
      "Ġkali": 792,
      "ĠTer": 793,
      "ont": 794,
      "Ġterk": 795,
      "ola": 796,
      "if": 797,
      "Ġbagian": 798,
      "Ġdir": 799,
      "Ġsetiap": 800,
      "tif": 801,
      "olah": 802,
      "ulit": 803,
      "Ġseg": 804,
      "Ġia": 805,
      "ima": 806,
      "Ġmudah": 807,
      "ĠDi": 808,
      "Ġjadi": 809,
      "Ġterjadi": 810,
      "Ġsep": 811,
      "yarakat": 812,
      "Ġseorang": 813,
      "enis": 814,
      "Ġsetelah": 815,
      "edia": 816,
      "ej": 817,
      "ila": 818,
      "Ġmungkin": 819,
      "mainan": 820,
      "Ġked": 821,
      "Ġneg": 822,
      "Ġpeny": 823,
      "aku": 824,
      "imana": 825,
      "Ġketika": 826,
      "had": 827,
      "udian": 828,
      "Ġwar": 829,
      "ef": 830,
      "ĠSeb": 831,
      "Ġmin": 832,
      "etah": 833,
      "Ġbelum": 834,
      "angun": 835,
      "elas": 836,
      "ĠJika": 837,
      "ekerja": 838,
      "Ġperlu": 839,
      "Ġhingga": 840,
      "ĠNamun": 841,
      "ungg": 842,
      "anjut": 843,
      "Ġdiper": 844,
      "atang": 845,
      "embali": 846,
      "Ġres": 847,
      "enc": 848,
      "Ġ5": 849,
      "Ġmulai": 850,
      "Ġdiri": 851,
      "Ġmasyarakat": 852,
      "formasi": 853,
      "Ġtapi": 854,
      "akin": 855,
      "akar": 856,
      "Ġum": 857,
      "faat": 858,
      "Ġsitu": 859,
      "awat": 860,
      "Ġ4": 861,
      "le": 862,
      "Ġpaling": 863,
      "anc": 864,
      "re": 865,
      "enal": 866,
      "Ġpul": 867,
      "uc": 868,
      "ĠDan": 869,
      "eks": 870,
      "ĠKar": 871,
      "inggi": 872,
      "Ġnamun": 873,
      "ulu": 874,
      "Ġdunia": 875,
      "Ġdid": 876,
      "Ġpermainan": 877,
      "Ġkeluar": 878,
      "anti": 879,
      "antu": 880,
      "alnya": 881,
      "awa": 882,
      "ĠV": 883,
      "ensi": 884,
      "alui": 885,
      "Ġmenj": 886,
      "ĠSem": 887,
      "urut": 888,
      "Ġkur": 889,
      "est": 890,
      "akai": 891,
      "Ġberl": 892,
      "tern": 893,
      "Ġla": 894,
      "ans": 895,
      "aikan": 896,
      "Ġlangsung": 897,
      "Ġlalu": 898,
      "Ġtem": 899,
      "Ġpernah": 900,
      "tara": 901,
      "Ġpers": 902,
      "ev": 903,
      "Ġso": 904,
      "gaimana": 905,
      "Ġhasil": 906,
      "unc": 907,
      "itar": 908,
      "ulis": 909,
      "alami": 910,
      "Ġmemp": 911,
      "ilan": 912,
      "Ġmelihat": 913,
      "entuk": 914,
      "Ġterd": 915,
      "ĠDengan": 916,
      "Ġkons": 917,
      "Ġair": 918,
      "unt": 919,
      "Ġkembali": 920,
      "Ġdua": 921,
      "Ġind": 922,
      "usahaan": 923,
      "han": 924,
      "Ġberp": 925,
      "Ġjudi": 926,
      "inta": 927,
      "Ġsedang": 928,
      "Ġselalu": 929,
      "Ġti": 930,
      "Ġmemba": 931,
      "iswa": 932,
      "ons": 933,
      "Ġi": 934,
      "Ġsen": 935,
      "Ġwa": 936,
      "mu": 937,
      "yakit": 938,
      "likasi": 939,
      "asanya": 940,
      "caya": 941,
      "umlah": 942,
      "Ġtetapi": 943,
      "ĠAp": 944,
      "Ġmod": 945,
      "ca": 946,
      "Ġjenis": 947,
      "Ġakhir": 948,
      "Ġsesuai": 949,
      "Ġtinggi": 950,
      "ĠSet": 951,
      "Ġmus": 952,
      "Ġberd": 953,
      "inggal": 954,
      "Ġbenar": 955,
      "nis": 956,
      "man": 957,
      "Ġbermain": 958,
      "oba": 959,
      "esi": 960,
      "ikir": 961,
      "erah": 962,
      "Ġtanpa": 963,
      "Ġtim": 964,
      "Ġmelalui": 965,
      "ver": 966,
      "Ġku": 967,
      "Ġhidup": 968,
      "aki": 969,
      "Ġo": 970,
      "yata": 971,
      "Ġkata": 972,
      "ĠSelain": 973,
      ",âĢĿ": 974,
      "Ġtetap": 975,
      "ambil": 976,
      "Ġsekarang": 977,
      "Ġselama": 978,
      "utama": 979,
      "oc": 980,
      "Ġbersama": 981,
      "ĠPro": 982,
      "Ġinformasi": 983,
      "etu": 984,
      "Ġmes": 985,
      "Ġkas": 986,
      "egitu": 987,
      "Ġpertama": 988,
      "uruh": 989,
      "Ġkeh": 990,
      "Ġpos": 991,
      "hadap": 992,
      "com": 993,
      "Ġob": 994,
      "usus": 995,
      "Ġkalau": 996,
      "Ġmana": 997,
      "ilai": 998,
      "li": 999,
      "urah": 1000,
      "alau": 1001,
      "Ġtubuh": 1002,
      "Ġdep": 1003,
      "Ġsering": 1004,
      "Ġkomp": 1005,
      "usaha": 1006,
      "Ġsitus": 1007,
      "Ġst": 1008,
      "Ġterhadap": 1009,
      "auh": 1010,
      "ĠMen": 1011,
      "Ġga": 1012,
      "erint": 1013,
      "Ġpemain": 1014,
      "Ġsekitar": 1015,
      "âĢĻ": 1016,
      "akah": 1017,
      "ĠPem": 1018,
      "ampu": 1019,
      "Ġpenting": 1020,
      "awan": 1021,
      "ilah": 1022,
      "eli": 1023,
      "Ġkom": 1024,
      "Ġperusahaan": 1025,
      "pat": 1026,
      "ajar": 1027,
      "Ġuang": 1028,
      "ni": 1029,
      "any": 1030,
      "st": 1031,
      "Ġ:": 1032,
      "Ġtahu": 1033,
      "atkan": 1034,
      "Ġdes": 1035,
      "emukan": 1036,
      "eksi": 1037,
      "Ġberada": 1038,
      "ĠPr": 1039,
      "ump": 1040,
      "Ġkemudian": 1041,
      "Ġbahkan": 1042,
      "Ġcepat": 1043,
      "ĠHal": 1044,
      "Ġmemilih": 1045,
      "Ġkecil": 1046,
      "ani": 1047,
      "ber": 1048,
      "arik": 1049,
      "Ġantara": 1050,
      "Ġterbaik": 1051,
      "Ġpenyakit": 1052,
      "ĠSe": 1053,
      "alis": 1054,
      "iket": 1055,
      "Ġsuatu": 1056,
      "hat": 1057,
      "tikan": 1058,
      "anita": 1059,
      "Ġsemakin": 1060,
      "Ġmembantu": 1061,
      "ebab": 1062,
      "ekan": 1063,
      "ĠKarena": 1064,
      "),": 1065,
      "Ġkota": 1066,
      "etahui": 1067,
      "aru": 1068,
      "uku": 1069,
      "Ġpilih": 1070,
      "Ġterus": 1071,
      "angka": 1072,
      "Ġdigunakan": 1073,
      "uas": 1074,
      "akarta": 1075,
      "Ġmasalah": 1076,
      "Ġproses": 1077,
      "Ġar": 1078,
      "ĠPen": 1079,
      "ide": 1080,
      "Ġdem": 1081,
      "Ġmengg": 1082,
      "Ġsp": 1083,
      "istem": 1084,
      "obil": 1085,
      "Ġjam": 1086,
      "olo": 1087,
      "ĠDalam": 1088,
      "uru": 1089,
      "AN": 1090,
      "Ġluar": 1091,
      "engah": 1092,
      "alaman": 1093,
      "erita": 1094,
      "Ġnama": 1095,
      "log": 1096,
      "Ġng": 1097,
      "ori": 1098,
      "Ġjalan": 1099,
      "Ġtiket": 1100,
      "ekn": 1101,
      "Ġlama": 1102,
      "Ġwaj": 1103,
      "Ġda": 1104,
      "oker": 1105,
      "ĠPada": 1106,
      "Ġbegitu": 1107,
      "tim": 1108,
      "unjung": 1109,
      "Ġmasuk": 1110,
      "Ġmengatakan": 1111,
      "har": 1112,
      "urun": 1113,
      "Ġumum": 1114,
      "anjang": 1115,
      "ina": 1116,
      "Ġmanusia": 1117,
      "Ġmencari": 1118,
      "Ġmengen": 1119,
      "Ġaw": 1120,
      "sa": 1121,
      "ayanan": 1122,
      "ahas": 1123,
      "usi": 1124,
      "imb": 1125,
      "Ġmaupun": 1126,
      "Ġnegara": 1127,
      "engar": 1128,
      "amu": 1129,
      "Ġmasa": 1130,
      "Ġangg": 1131,
      "ark": 1132,
      "one": 1133,
      "atas": 1134,
      "Ġkhusus": 1135,
      "Ġseba": 1136,
      "abu": 1137,
      "ikit": 1138,
      "ju": 1139,
      "di": 1140,
      "hkan": 1141,
      "Ġmampu": 1142,
      "utan": 1143,
      "ĠAllah": 1144,
      "000": 1145,
      "Ġmakanan": 1146,
      "Ġtangg": 1147,
      "Ġart": 1148,
      "ehatan": 1149,
      "Ġbulan": 1150,
      "Ġbag": 1151,
      "rib": 1152,
      "Ġberbeda": 1153,
      "asar": 1154,
      "Ġbarang": 1155,
      "uda": 1156,
      "Ġbahan": 1157,
      "ĠSaya": 1158,
      "atif": 1159,
      "ualitas": 1160,
      "ĠRp": 1161,
      "anding": 1162,
      "engg": 1163,
      "Ġmerasa": 1164,
      "Ġkerja": 1165,
      "gram": 1166,
      "erintah": 1167,
      "Ġ6": 1168,
      "Ġ19": 1169,
      "Ġweb": 1170,
      "Ġsedikit": 1171,
      "Ġbiasa": 1172,
      "Ġmenarik": 1173,
      "Ġwanita": 1174,
      "Ġdatang": 1175,
      "upa": 1176,
      "Ġpasti": 1177,
      "ban": 1178,
      "adan": 1179,
      "Ġlap": 1180,
      "oto": 1181,
      "Ġkedua": 1182,
      "ode": 1183,
      "ame": 1184,
      "ov": 1185,
      "ĠIni": 1186,
      "ĠJakarta": 1187,
      "Ġbaw": 1188,
      "Ġseluruh": 1189,
      "Ġny": 1190,
      "antai": 1191,
      "Ġtamp": 1192,
      "ait": 1193,
      "tiv": 1194,
      "Ġberikut": 1195,
      "Ġpenggun": 1196,
      "ĠAg": 1197,
      "Ġtel": 1198,
      "ihak": 1199,
      "ore": 1200,
      "apun": 1201,
      "ihan": 1202,
      "tur": 1203,
      "anda": 1204,
      "Ġac": 1205,
      "mi": 1206,
      "oko": 1207,
      "Ġsebelumnya": 1208,
      "Ġmeningkat": 1209,
      "Ġtepat": 1210,
      "Ġjauh": 1211,
      "isata": 1212,
      "asional": 1213,
      "und": 1214,
      "Ġkek": 1215,
      "Ġbagaimana": 1216,
      "Ġkulit": 1217,
      "ologi": 1218,
      "Ġkegi": 1219,
      "Ġaplikasi": 1220,
      "Ġintern": 1221,
      "Ġsistem": 1222,
      "Ġkurang": 1223,
      "Ġtar": 1224,
      "ambah": 1225,
      "Ġmener": 1226,
      "ort": 1227,
      "angkat": 1228,
      "Ġmobil": 1229,
      "ij": 1230,
      "Ġfil": 1231,
      "sit": 1232,
      "Ġbisnis": 1233,
      "Ġkegiatan": 1234,
      "apai": 1235,
      "ĠSetelah": 1236,
      "acam": 1237,
      "Ġtentu": 1238,
      "butu": 1239,
      "gas": 1240,
      "ern": 1241,
      "ayah": 1242,
      "ĠJadi": 1243,
      "Ġken": 1244,
      "amin": 1245,
      "Ġadanya": 1246,
      "idikan": 1247,
      "anyak": 1248,
      "akhir": 1249,
      "butuhkan": 1250,
      "aksi": 1251,
      "ĠTapi": 1252,
      "Ġobat": 1253,
      "ikian": 1254,
      "Ġgun": 1255,
      "amat": 1256,
      "Ġterp": 1257,
      "Ġmurah": 1258,
      "co": 1259,
      "ĠAr": 1260,
      "Ġkan": 1261,
      "ĠPeng": 1262,
      "Ġrasa": 1263,
      "uhi": 1264,
      "Ġperk": 1265,
      "Ġdepan": 1266,
      "Ġmemas": 1267,
      "ubungan": 1268,
      "disi": 1269,
      "masuk": 1270,
      "iaya": 1271,
      "ukkan": 1272,
      "aja": 1273,
      "Ġterj": 1274,
      "edi": 1275,
      "Ġbiasanya": 1276,
      "ujuan": 1277,
      "elit": 1278,
      "Ġpunya": 1279,
      "ikm": 1280,
      "ust": 1281,
      "atis": 1282,
      "Ġmat": 1283,
      "ilang": 1284,
      "iran": 1285,
      "utuhan": 1286,
      "Ġ10": 1287,
      "Ġmengenai": 1288,
      "Ġef": 1289,
      "Ġlok": 1290,
      "ĠAku": 1291,
      "ĠAda": 1292,
      "adang": 1293,
      "Ġbentuk": 1294,
      "otor": 1295,
      "angi": 1296,
      "ĠAs": 1297,
      "ĠAm": 1298,
      "engkap": 1299,
      "ĠMer": 1300,
      "Ġjelas": 1301,
      "Ġor": 1302,
      "emen": 1303,
      "he": 1304,
      "Ġteman": 1305,
      "Ġbekerja": 1306,
      "Ġ7": 1307,
      "Ġkesehatan": 1308,
      "ĠIs": 1309,
      "lik": 1310,
      "aka": 1311,
      "usan": 1312,
      "ug": 1313,
      "Ġkr": 1314,
      "Ġbawah": 1315,
      "Ġnya": 1316,
      "Ġkalian": 1317,
      "Ġbuat": 1318,
      "Ġpihak": 1319,
      "Ġ,": 1320,
      "ener": 1321,
      "entara": 1322,
      "Ġbagus": 1323,
      "irim": 1324,
      "Ġmenja": 1325,
      "nyata": 1326,
      "utus": 1327,
      "Ġblog": 1328,
      "Ġput": 1329,
      "Ġjangan": 1330,
      "Ġterlihat": 1331,
      "ekat": 1332,
      "Ġkeluarga": 1333,
      "inan": 1334,
      "enarnya": 1335,
      "Ġterlalu": 1336,
      "erta": 1337,
      "akit": 1338,
      "tinya": 1339,
      "Ġdisebut": 1340,
      "Ġtekn": 1341,
      "Ġjumlah": 1342,
      "paten": 1343,
      "ĠKami": 1344,
      "Ġ.": 1345,
      "abupaten": 1346,
      "res": 1347,
      "ch": 1348,
      "omb": 1349,
      "Ġeks": 1350,
      "ĠAd": 1351,
      "Ġkebutuhan": 1352,
      "ĠMas": 1353,
      "ĠTidak": 1354,
      "lam": 1355,
      "erb": 1356,
      "ubah": 1357,
      "Ġem": 1358,
      "Ġakhirnya": 1359,
      "Ġstr": 1360,
      "Ġdata": 1361,
      "Ġtert": 1362,
      "Ġdic": 1363,
      "Ġuj": 1364,
      "Ġdaerah": 1365,
      "lo": 1366,
      "Ġ2018": 1367,
      "ail": 1368,
      "Ġberat": 1369,
      "agu": 1370,
      "Ġgr": 1371,
      "Ġtermasuk": 1372,
      "atur": 1373,
      "sial": 1374,
      "Ġmengalami": 1375,
      "gan": 1376,
      "eorang": 1377,
      "Ġbola": 1378,
      "oga": 1379,
      "Ġlakukan": 1380,
      "ger": 1381,
      "ukum": 1382,
      "Ġpenc": 1383,
      "Ġmata": 1384,
      "ĠDia": 1385,
      "Ġtrans": 1386,
      "ontoh": 1387,
      "Ġpilihan": 1388,
      "Ġtangan": 1389,
      "percaya": 1390,
      "Ġwarna": 1391,
      "Ġul": 1392,
      "Ġbay": 1393,
      "Ġdiber": 1394,
      "Ġdimana": 1395,
      "itik": 1396,
      "Ġsejak": 1397,
      "Ġ8": 1398,
      "Ġlem": 1399,
      "Ġhati": 1400,
      "Ġtip": 1401,
      "angunan": 1402,
      "bat": 1403,
      "ikel": 1404,
      "war": 1405,
      "enang": 1406,
      "ino": 1407,
      "Ġpol": 1408,
      "Ġbelajar": 1409,
      "ebabkan": 1410,
      "anak": 1411,
      "Ġz": 1412,
      "ura": 1413,
      "min": 1414,
      "hone": 1415,
      "ker": 1416,
      "ĠKem": 1417,
      "umber": 1418,
      ",\"": 1419,
      "Ġpekerja": 1420,
      "Ġmenemukan": 1421,
      "Ġkondisi": 1422,
      "ungsi": 1423,
      "wan": 1424,
      "upaya": 1425,
      "adah": 1426,
      "ĠMes": 1427,
      "ĠCh": 1428,
      "Ġtinggal": 1429,
      "Ġdij": 1430,
      "Ġdig": 1431,
      "ongan": 1432,
      "alik": 1433,
      "angkah": 1434,
      "ĠYang": 1435,
      "idang": 1436,
      "urat": 1437,
      "eja": 1438,
      "Ġprogram": 1439,
      "uangan": 1440,
      "Ġmedia": 1441,
      "ĠSek": 1442,
      "aik": 1443,
      "uanya": 1444,
      "etak": 1445,
      "Ġutama": 1446,
      "uli": 1447,
      "Ġdiba": 1448,
      "Ġmengan": 1449,
      "omo": 1450,
      "las": 1451,
      "ft": 1452,
      "andar": 1453,
      "ingat": 1454,
      "Ġsekolah": 1455,
      "untungan": 1456,
      "Ġmenunj": 1457,
      "ambut": 1458,
      "ikuti": 1459,
      "Ġtujuan": 1460,
      "Ġawal": 1461,
      "arat": 1462,
      "ĠKota": 1463,
      "Ġtentunya": 1464,
      "Ġseseorang": 1465,
      "Ġis": 1466,
      "Ġagen": 1467,
      "ukuran": 1468,
      "Ġpesawat": 1469,
      "uta": 1470,
      "Ġil": 1471,
      "Ġmet": 1472,
      "ahasiswa": 1473,
      "Ġmengetahui": 1474,
      "ula": 1475,
      "ulkan": 1476,
      "Ġusaha": 1477,
      "Ġhad": 1478,
      "ĠDes": 1479,
      "ĠKet": 1480,
      "ili": 1481,
      "antung": 1482,
      "jalanan": 1483,
      "Ġsegera": 1484,
      "Ġtanggal": 1485,
      "uduk": 1486,
      "idur": 1487,
      "Ġbahasa": 1488,
      "isalnya": 1489,
      "anjutnya": 1490,
      "ahun": 1491,
      "lan": 1492,
      "Ġpenj": 1493,
      "Ġjar": 1494,
      "ĠAk": 1495,
      "Ġefek": 1496,
      "Ġbadan": 1497,
      "Ġmalam": 1498,
      "Ġsebagian": 1499,
      "Ġkat": 1500,
      "Ġpan": 1501,
      "ambar": 1502,
      "asal": 1503,
      "ig": 1504,
      "embang": 1505,
      "Ġbak": 1506,
      "ĠHar": 1507,
      "Ġot": 1508,
      "Ġkartu": 1509,
      "Ġsesuatu": 1510,
      "embangan": 1511,
      "ĠIa": 1512,
      "ember": 1513,
      "Ġnilai": 1514,
      "ĠKep": 1515,
      "Ġjawa": 1516,
      "akni": 1517,
      "ki": 1518,
      "Ġbur": 1519,
      "Ġberhasil": 1520,
      "Ġ200": 1521,
      "ediakan": 1522,
      "ampuan": 1523,
      "umsi": 1524,
      "Ġanggota": 1525,
      "amanya": 1526,
      "kannya": 1527,
      "ikat": 1528,
      "ĠSM": 1529,
      "ĠMem": 1530,
      "ibat": 1531,
      "Ġpemerintah": 1532,
      "angga": 1533,
      "Ġterdapat": 1534,
      "onom": 1535,
      "Ġsakit": 1536,
      "Ġpula": 1537,
      "Ġmeningkatkan": 1538,
      "Ġtiga": 1539,
      "ĠJawa": 1540,
      "Ġbuku": 1541,
      "Ġpoker": 1542,
      "Ġgame": 1543,
      "Ġtaruhan": 1544,
      "Ġternyata": 1545,
      "umen": 1546,
      "itur": 1547,
      "Ġapakah": 1548,
      "Ġdulu": 1549,
      "Ġaman": 1550,
      "Ġkeber": 1551,
      "Ġmasing": 1552,
      "ĠIng": 1553,
      "Ġbiaya": 1554,
      "aftar": 1555,
      "ĠMeng": 1556,
      "andingan": 1557,
      "all": 1558,
      "Ġpria": 1559,
      "Ġyakni": 1560,
      "idupan": 1561,
      "Ġibu": 1562,
      "Ġacara": 1563,
      "asikan": 1564,
      "asarkan": 1565,
      "ajaran": 1566,
      "alahan": 1567,
      "Ġmembeli": 1568,
      "Ġ9": 1569,
      "Ġkualitas": 1570,
      "unyai": 1571,
      "ea": 1572,
      "adaan": 1573,
      "imal": 1574,
      "benar": 1575,
      "Ġdih": 1576,
      "isa": 1577,
      "ĠZ": 1578,
      "site": 1579,
      "Ġsuka": 1580,
      "Ġtoko": 1581,
      "Ġdirinya": 1582,
      "Ġmencoba": 1583,
      "Ġartikel": 1584,
      "Ġperjalanan": 1585,
      "uncul": 1586,
      "Ġay": 1587,
      "ĠKabupaten": 1588,
      "ve": 1589,
      "Ġdesain": 1590,
      "Ġkont": 1591,
      "Ġwajah": 1592,
      "aris": 1593,
      "ompok": 1594,
      "ĠSaat": 1595,
      "akt": 1596,
      "asakan": 1597,
      "ĠTim": 1598,
      "Ġsebenarnya": 1599,
      "Ġ0": 1600,
      "Ġberjalan": 1601,
      "anakan": 1602,
      "Ġberj": 1603,
      "araan": 1604,
      "Ġdok": 1605,
      "Ġtrad": 1606,
      "ĠOn": 1607,
      "Ġtingkat": 1608,
      "ipun": 1609,
      "Ġsegala": 1610,
      "asaan": 1611,
      "Ġtidur": 1612,
      "ord": 1613,
      "aknya": 1614,
      "ampir": 1615,
      "Ġyg": 1616,
      "Ġalat": 1617,
      "egi": 1618,
      "Ġmempunyai": 1619,
      "Ġkap": 1620,
      "ĠâĢĺ": 1621,
      "Ġmencapai": 1622,
      "Ġek": 1623,
      "Ġkol": 1624,
      "Ġalam": 1625,
      "Ġsiap": 1626,
      "Ġwisata": 1627,
      "aranya": 1628,
      "andingkan": 1629,
      "Ġkehidupan": 1630,
      "Ġmenurut": 1631,
      "Ġinf": 1632,
      "yang": 1633,
      "Ġbila": 1634,
      "empatan": 1635,
      "ĠMereka": 1636,
      "Ġpendidikan": 1637,
      "Ġkemampuan": 1638,
      "Ġprof": 1639,
      "arti": 1640,
      "Ġkor": 1641,
      "Ġlingk": 1642,
      "atunya": 1643,
      "ĠNah": 1644,
      "Ġdin": 1645,
      "Ġhukum": 1646,
      "kipun": 1647,
      "Ġkuat": 1648,
      "Ġmuncul": 1649,
      "alon": 1650,
      "Ġ...": 1651,
      "phone": 1652,
      "Ġdah": 1653,
      "encana": 1654,
      "teri": 1655,
      "ohon": 1656,
      "Ġwarga": 1657,
      "Ġmemen": 1658,
      "isik": 1659,
      "anja": 1660,
      "Ġsil": 1661,
      "buatan": 1662,
      "iden": 1663,
      "Ġsh": 1664,
      "ilayah": 1665,
      "ĠSalah": 1666,
      "Ġdemikian": 1667,
      "Ġdasar": 1668,
      "buhan": 1669,
      "asilkan": 1670,
      "omor": 1671,
      "Ġri": 1672,
      "Ġsosial": 1673,
      "ĠDari": 1674,
      "Ġdiberikan": 1675,
      "ma": 1676,
      "ideo": 1677,
      "ate": 1678,
      "Ġinternet": 1679,
      "ook": 1680,
      "Ġkeuntungan": 1681,
      "Ġmembutuhkan": 1682,
      "Ġmanfaat": 1683,
      "Ġlayanan": 1684,
      "Ġfak": 1685,
      "yah": 1686,
      "enangan": 1687,
      "Ġsiswa": 1688,
      "inasi": 1689,
      "ĠSo": 1690,
      "otel": 1691,
      "entukan": 1692,
      "mart": 1693,
      "Ġpanjang": 1694,
      "ira": 1695,
      "masing": 1696,
      "ĠPas": 1697,
      "ainkan": 1698,
      "Ġpasar": 1699,
      "iver": 1700,
      "Ġmesin": 1701,
      "Ġbeb": 1702,
      "Ġfoto": 1703,
      "Ġpet": 1704,
      "Ġterakhir": 1705,
      "unggu": 1706,
      "ikmati": 1707,
      "isasi": 1708,
      "me": 1709,
      "insi": 1710,
      "fat": 1711,
      "ungi": 1712,
      "lukan": 1713,
      "get": 1714,
      "Ġalami": 1715,
      "inggu": 1716,
      "Ġpekerjaan": 1717,
      "ĠSer": 1718,
      "Ġmengambil": 1719,
      "Ġist": 1720,
      "urkan": 1721,
      "ens": 1722,
      "ĠKe": 1723,
      "estasi": 1724,
      "uman": 1725,
      "elitian": 1726,
      "uju": 1727,
      "yat": 1728,
      "Ġjasa": 1729,
      "raga": 1730,
      "Ġwebsite": 1731,
      "Ġberarti": 1732,
      "Ġkelas": 1733,
      "gak": 1734,
      "hi": 1735,
      "ewa": 1736,
      "Ġdibuat": 1737,
      "Ġperb": 1738,
      "Ġketer": 1739,
      ".âĢĿ": 1740,
      "Ġdarah": 1741,
      "ack": 1742,
      "Ġtua": 1743,
      "ĠOl": 1744,
      "ukti": 1745,
      "ĠItu": 1746,
      "Ġnyaman": 1747,
      "Ġrek": 1748,
      "Ġsehat": 1749,
      "ungguh": 1750,
      "eluar": 1751,
      "Ġsk": 1752,
      "urn": 1753,
      "Ġukuran": 1754,
      "Ġmahasiswa": 1755,
      "alagi": 1756,
      "Ġtum": 1757,
      "Ġsumber": 1758,
      "Ġruang": 1759,
      "Ġsini": 1760,
      "ĠTuhan": 1761,
      "Ġpakai": 1762,
      "Ġmemberi": 1763,
      "Ġorgan": 1764,
      "Ġkarya": 1765,
      "Ġataupun": 1766,
      "ĠTr": 1767,
      "istr": 1768,
      "Ġbun": 1769,
      "Ġfilm": 1770,
      "Ġmenunjukkan": 1771,
      "Ġpemba": 1772,
      "ĠKalau": 1773,
      "ĠMenurut": 1774,
      "ribadi": 1775,
      "Ġposisi": 1776,
      "Ġpak": 1777,
      "Ġand": 1778,
      "Ġresmi": 1779,
      "Ġsebab": 1780,
      "ĠCara": 1781,
      "eran": 1782,
      "gris": 1783,
      "ĠSt": 1784,
      "Ġsah": 1785,
      "av": 1786,
      "atasi": 1787,
      "abis": 1788,
      "Ġbidang": 1789,
      "Ġmembawa": 1790,
      "Ġberasal": 1791,
      "perasi": 1792,
      "Ġterg": 1793,
      "ĠX": 1794,
      "anfaat": 1795,
      "amanan": 1796,
      "Ġpergi": 1797,
      "Ġkini": 1798,
      "Ġterutama": 1799,
      "Ġbuah": 1800,
      "arnya": 1801,
      "Ġpertandingan": 1802,
      "ult": 1803,
      "Ġhubungan": 1804,
      "bung": 1805,
      "Ġmengak": 1806,
      "Ġsulit": 1807,
      "Ġka": 1808,
      "ĠMar": 1809,
      "ĠInggris": 1810,
      "Ġselain": 1811,
      "Ġop": 1812,
      "uter": 1813,
      "ĠQ": 1814,
      "ond": 1815,
      "AR": 1816,
      "Ġwilayah": 1817,
      "Ġpot": 1818,
      "Ġlokasi": 1819,
      "Ġmenuju": 1820,
      "wah": 1821,
      "ĠIslam": 1822,
      "lim": 1823,
      "Ġpengguna": 1824,
      "iz": 1825,
      "Ġteknologi": 1826,
      "Ġmengk": 1827,
      "empuan": 1828,
      "Ġpengalaman": 1829,
      "hatikan": 1830,
      "ustr": 1831,
      "Ġmacam": 1832,
      "irkan": 1833,
      "Ġbern": 1834,
      "ho": 1835,
      "Ġ/": 1836,
      "ocok": 1837,
      "usat": 1838,
      "Ġgak": 1839,
      "agam": 1840,
      "unan": 1841,
      "amatan": 1842,
      "Ġbat": 1843,
      "ĠPert": 1844,
      "Ġre": 1845,
      "alkan": 1846,
      "Ġmuda": 1847,
      "manfaat": 1848,
      "Ġtengah": 1849,
      "ajak": 1850,
      "Ġdikenal": 1851,
      "anggap": 1852,
      "Ġakun": 1853,
      "ff": 1854,
      "inj": 1855,
      "ĠPT": 1856,
      "Ġlingkungan": 1857,
      "tivitas": 1858,
      "aksanakan": 1859,
      "tum": 1860,
      "Ġjuta": 1861,
      "Ġgambar": 1862,
      "Ġtertentu": 1863,
      "Ġtanah": 1864,
      "ĠBahkan": 1865,
      "Ġberm": 1866,
      "ĠSed": 1867,
      "Ġkesempatan": 1868,
      "Ġdekat": 1869,
      "Ġe": 1870,
      "Ġsebesar": 1871,
      "ĠSp": 1872,
      "Ġmenjaga": 1873,
      "Ġditer": 1874,
      "SI": 1875,
      "Ġ&": 1876,
      "Ġ15": 1877,
      "iga": 1878,
      "ukses": 1879,
      "ers": 1880,
      "Ġbermanfaat": 1881,
      "roid": 1882,
      "Ġkend": 1883,
      "Ġmenyebabkan": 1884,
      "Ġpenuh": 1885,
      "Ġ20": 1886,
      "Ġmenerima": 1887,
      "ĠOnline": 1888,
      "Ġgel": 1889,
      "Ġmenit": 1890,
      "Ġcontoh": 1891,
      "Ġterbaru": 1892,
      "Ġdaftar": 1893,
      "Ġpengh": 1894,
      "Ġmodel": 1895,
      "ĠBanyak": 1896,
      "oy": 1897,
      "takan": 1898,
      "ĠNeg": 1899,
      "Ġperm": 1900,
      "Ġkomun": 1901,
      "enda": 1902,
      "ell": 1903,
      "Ġvideo": 1904,
      "andang": 1905,
      "Ġkamar": 1906,
      "antor": 1907,
      "Ġmaks": 1908,
      "own": 1909,
      "uma": 1910,
      "ue": 1911,
      "Ġmenulis": 1912,
      "Ġpeserta": 1913,
      "Ġmotor": 1914,
      "Ġger": 1915,
      "....": 1916,
      "Ġkeku": 1917,
      "Ġmembaca": 1918,
      "Ġbeli": 1919,
      "Ġmenyediakan": 1920,
      "Ġilmu": 1921,
      "Ġbet": 1922,
      "sp": 1923,
      "unjungi": 1924,
      "Ġdaya": 1925,
      "ukung": 1926,
      "ĠJep": 1927,
      "onomi": 1928,
      "Ġgunakan": 1929,
      "opul": 1930,
      "Ġpl": 1931,
      "Ġberhar": 1932,
      "Ġsal": 1933,
      "Ġlengkap": 1934,
      "ela": 1935,
      "Ġpasangan": 1936,
      "ei": 1937,
      "aha": 1938,
      "Ġ12": 1939,
      "epas": 1940,
      "gk": 1941,
      "Ġsiapa": 1942,
      "Ġfitur": 1943,
      "esan": 1944,
      "Ġterc": 1945,
      "ard": 1946,
      "Ġram": 1947,
      "Ġen": 1948,
      "ill": 1949,
      "Ġmenjalan": 1950,
      "201": 1951,
      "anyakan": 1952,
      "ĠSeh": 1953,
      "Ġbayi": 1954,
      "Ġmusim": 1955,
      "ebihan": 1956,
      "Ġbelak": 1957,
      "agai": 1958,
      "Ġdahulu": 1959,
      "Ġterpercaya": 1960,
      "isah": 1961,
      "Ġmenang": 1962,
      "lis": 1963,
      "Ġpelangg": 1964,
      "Ġmenger": 1965,
      "olahraga": 1966,
      "angsa": 1967,
      "impin": 1968,
      "Ġtulis": 1969,
      "Ġterkait": 1970,
      "Ġlah": 1971,
      "ĠPol": 1972,
      "Ġik": 1973,
      "Ġpesan": 1974,
      "Ġikut": 1975,
      "Ġmengikuti": 1976,
      "Ġsisi": 1977,
      "utup": 1978,
      "ĠJangan": 1979,
      "ĠKita": 1980,
      "arian": 1981,
      "elaskan": 1982,
      "ĠTet": 1983,
      "Ġup": 1984,
      "Ġel": 1985,
      "anyaan": 1986,
      "pl": 1987,
      "daya": 1988,
      "ahami": 1989,
      "ĠMaka": 1990,
      "edit": 1991,
      "Ġseri": 1992,
      "NI": 1993,
      "martphone": 1994,
      "Ġ2017": 1995,
      "Ġguru": 1996,
      "Ġumumnya": 1997,
      "opi": 1998,
      "umi": 1999,
      "Ġaktif": 2000,
      "Ġluas": 2001,
      "Ġgratis": 2002,
      "ubahan": 2003,
      "bila": 2004,
      "usnya": 2005,
      "Ġselanjutnya": 2006,
      "ampak": 2007,
      "Ġperempuan": 2008,
      "Ġmenyer": 2009,
      "ĠSeperti": 2010,
      "Ġkelompok": 2011,
      "aian": 2012,
      "ĠAt": 2013,
      "uri": 2014,
      "Ġpikir": 2015,
      "Ġmenyel": 2016,
      "Ġmul": 2017,
      "ĠOr": 2018,
      "Ġmembuka": 2019,
      "Ġmeninggal": 2020,
      "Ġcer": 2021,
      "Ġlangkah": 2022,
      "adar": 2023,
      "Ġalasan": 2024,
      "Ġkasih": 2025,
      "Ġhampir": 2026,
      "Ġrambut": 2027,
      "arket": 2028,
      "ĠKetika": 2029,
      "ungkan": 2030,
      "udara": 2031,
      "Ġmenghad": 2032,
      "az": 2033,
      "olusi": 2034,
      "Ġcocok": 2035,
      "Ġmah": 2036,
      "Ġmenghasilkan": 2037,
      "Ġnggak": 2038,
      "Ġmenurun": 2039,
      "Ġikan": 2040,
      "Ġnanti": 2041,
      "Ġpembel": 2042,
      "ender": 2043,
      "Ġdom": 2044,
      "Ġberg": 2045,
      "Ġlanjut": 2046,
      "ewat": 2047,
      "Ġusia": 2048,
      "ry": 2049,
      "Ġapabila": 2050,
      "inc": 2051,
      "Ġditu": 2052,
      "Ġputih": 2053,
      "antik": 2054,
      "eman": 2055,
      "obatan": 2056,
      "ebar": 2057,
      "erh": 2058,
      "ĠDP": 2059,
      "raf": 2060,
      "Ġmengur": 2061,
      "onton": 2062,
      "endah": 2063,
      "Ġtersedia": 2064,
      "wal": 2065,
      "men": 2066,
      "ĠOleh": 2067,
      "ĠKec": 2068,
      "Ġtamb": 2069,
      "Ġpercaya": 2070,
      "ĠKamu": 2071,
      "ER": 2072,
      "Ġkepala": 2073,
      "asilitas": 2074,
      "Ġdiant": 2075,
      "gabung": 2076,
      "Ġdet": 2077,
      "Ġnegeri": 2078,
      "emu": 2079,
      "ĠGo": 2080,
      "yek": 2081,
      "Ġcalon": 2082,
      "Ġpribadi": 2083,
      "ongk": 2084,
      "Ġjawab": 2085,
      "Ġpenelitian": 2086,
      "ogel": 2087,
      "load": 2088,
      "asaran": 2089,
      "Ġsana": 2090,
      "Ġsuara": 2091,
      "Ġdesa": 2092,
      "aud": 2093,
      "andi": 2094,
      "Ġib": 2095,
      "ĠTak": 2096,
      "Ġkasus": 2097,
      "hal": 2098,
      "rip": 2099,
      "Ġdiatas": 2100,
      "ĠAnd": 2101,
      "ayu": 2102,
      "asih": 2103,
      "Ġmisalnya": 2104,
      "onsumsi": 2105,
      "Ġsih": 2106,
      "atihan": 2107,
      "anggung": 2108,
      "ĠBagi": 2109,
      "uni": 2110,
      "ĠSementara": 2111,
      "Ġkemenangan": 2112,
      "oran": 2113,
      "apak": 2114,
      "ink": 2115,
      "ihkan": 2116,
      "ris": 2117,
      "Ġmendukung": 2118,
      "ha": 2119,
      "akter": 2120,
      "iv": 2121,
      "Ġterlebih": 2122,
      "angnya": 2123,
      "Ġindah": 2124,
      "iap": 2125,
      "embangkan": 2126,
      "Ġgol": 2127,
      "uga": 2128,
      "AM": 2129,
      "Ġnaik": 2130,
      "ator": 2131,
      "ĠEn": 2132,
      "Ġlaz": 2133,
      "IN": 2134,
      "ĠBeberapa": 2135,
      "Ġcerita": 2136,
      "Ġsatunya": 2137,
      "Ġhadir": 2138,
      "ilis": 2139,
      "Ġdana": 2140,
      "anfaatkan": 2141,
      "andung": 2142,
      "ĠBi": 2143,
      "ĠSu": 2144,
      "roduk": 2145,
      "ĠJepang": 2146,
      "iptakan": 2147,
      "ĠKes": 2148,
      "gg": 2149,
      "ungkinan": 2150,
      "Ġdibandingkan": 2151,
      "ĠBerikut": 2152,
      "ji": 2153,
      "Ġdiketahui": 2154,
      "Ġdapatkan": 2155,
      "Ġkab": 2156,
      "Ġmenikmati": 2157,
      "Ġmenya": 2158,
      "Ġlihat": 2159,
      "Ġnomor": 2160,
      "erhana": 2161,
      "Ġpopul": 2162,
      "ess": 2163,
      "Ġdokter": 2164,
      "awarkan": 2165,
      "Ġmemakai": 2166,
      "Ġbantu": 2167,
      "Ġseks": 2168,
      "Ġinv": 2169,
      "atih": 2170,
      "ĠKel": 2171,
      "itif": 2172,
      "ivers": 2173,
      "adahal": 2174,
      "esiden": 2175,
      "erbal": 2176,
      "ogle": 2177,
      "Ġbatu": 2178,
      "isan": 2179,
      "Ġmenyebut": 2180,
      "ank": 2181,
      "Ġmembangun": 2182,
      "ampilan": 2183,
      "Ġsebaik": 2184,
      "ine": 2185,
      "Ġberkembang": 2186,
      "dung": 2187,
      "Ġkl": 2188,
      "Ġpagi": 2189,
      "Ġtugas": 2190,
      "kah": 2191,
      "ahaya": 2192,
      "ĠMal": 2193,
      "antinya": 2194,
      "Ġjual": 2195,
      "Ġkeras": 2196,
      "ĠBarat": 2197,
      "Ġlagu": 2198,
      "Ġmemer": 2199,
      "ĠSebagai": 2200,
      "ukul": 2201,
      "gus": 2202,
      "Ġsmartphone": 2203,
      "Ġstrat": 2204,
      "ital": 2205,
      "ĠTetapi": 2206,
      "aturan": 2207,
      "etahuan": 2208,
      "Ġsehari": 2209,
      "Ġterkenal": 2210,
      "atnya": 2211,
      "Ġab": 2212,
      "Ġberdasarkan": 2213,
      "Ġperubahan": 2214,
      "ĠMel": 2215,
      "Ġsang": 2216,
      "ampil": 2217,
      "ĠPend": 2218,
      "ck": 2219,
      "Ġolahraga": 2220,
      "Ġterdiri": 2221,
      "esai": 2222,
      "uti": 2223,
      "asinya": 2224,
      "Ġperangkat": 2225,
      "âĢĿ.": 2226,
      "ambahkan": 2227,
      "ĠSh": 2228,
      "Ġkamp": 2229,
      "Ġfaktor": 2230,
      "inar": 2231,
      "ampaikan": 2232,
      "icara": 2233,
      "Ġhit": 2234,
      "Ġmew": 2235,
      "Ġribu": 2236,
      "Ġturun": 2237,
      "Ġakibat": 2238,
      "Ġberf": 2239,
      "Ġsemuanya": 2240,
      "Ġpenggunaan": 2241,
      "Ġlewat": 2242,
      "Ġprofesi": 2243,
      "Ġkantor": 2244,
      "Ġkaki": 2245,
      "Ġsejumlah": 2246,
      "enaga": 2247,
      "ĠDesa": 2248,
      "Ġbek": 2249,
      "eluarkan": 2250,
      "Ġmeminta": 2251,
      "Ġsupaya": 2252,
      "Ġ100": 2253,
      "ĠBel": 2254,
      "Ġekonomi": 2255,
      "ĠUm": 2256,
      "antan": 2257,
      "Ġberupa": 2258,
      "esu": 2259,
      "ifikasi": 2260,
      "Ġasal": 2261,
      "Ġangka": 2262,
      "ĠKom": 2263,
      "pada": 2264,
      "Ġrak": 2265,
      "eta": 2266,
      "Ġterasa": 2267,
      "Ġfasilitas": 2268,
      "ĠDem": 2269,
      "Ġped": 2270,
      "osi": 2271,
      "Ġtiba": 2272,
      "Ġbang": 2273,
      "Ġform": 2274,
      "Ġide": 2275,
      "okoh": 2276,
      "Ġperkembangan": 2277,
      "Ġpanas": 2278,
      "ĠMus": 2279,
      "Ġjaringan": 2280,
      "ewan": 2281,
      "ulang": 2282,
      "iman": 2283,
      "atuh": 2284,
      "Ġbersih": 2285,
      "Ġpart": 2286,
      "ĠAc": 2287,
      "ĠSedangkan": 2288,
      "oa": 2289,
      "Ġ30": 2290,
      "Ġpengg": 2291,
      "Ġdisini": 2292,
      "AT": 2293,
      "Ġkekuatan": 2294,
      "ĠPel": 2295,
      "Ġkeadaan": 2296,
      "Ġkemungkinan": 2297,
      "Ġpo": 2298,
      "te": 2299,
      "Ġlupa": 2300,
      "Ġbelakang": 2301,
      "ace": 2302,
      "ĠAmer": 2303,
      "ram": 2304,
      "Ġagama": 2305,
      "ĠApa": 2306,
      "Ġkhususnya": 2307,
      "indari": 2308,
      "Ġsementara": 2309,
      "daft": 2310,
      "su": 2311,
      "isk": 2312,
      "Ġkomputer": 2313,
      "enangkan": 2314,
      "Ġketi": 2315,
      "Ġins": 2316,
      "Ġdisk": 2317,
      "Ġayam": 2318,
      "Ġhak": 2319,
      "ejala": 2320,
      "ĠSehingga": 2321,
      "ĠKeb": 2322,
      "Ġmodal": 2323,
      "Ġtumbuh": 2324,
      "Ġburuk": 2325,
      "Ġcinta": 2326,
      "ukai": 2327,
      "enti": 2328,
      "Ġpromo": 2329,
      "ublik": 2330,
      "ona": 2331,
      "enakan": 2332,
      "Ġproduksi": 2333,
      "iter": 2334,
      "Ġberharap": 2335,
      "Ġmenu": 2336,
      "iversitas": 2337,
      "Ġitulah": 2338,
      "ĠSep": 2339,
      "impan": 2340,
      "Ġbunga": 2341,
      "ity": 2342,
      "Ġbakal": 2343,
      "Ġlazada": 2344,
      "Ġmateri": 2345,
      "Ġberusaha": 2346,
      "Ġsus": 2347,
      "ainya": 2348,
      "wab": 2349,
      "ert": 2350,
      "egas": 2351,
      "Ġsederhana": 2352,
      "Ġ[": 2353,
      "Ġmemenuhi": 2354,
      "Ġsy": 2355,
      "rasi": 2356,
      "Ġmo": 2357,
      "Ġempat": 2358,
      "Ġjad": 2359,
      "Ġrel": 2360,
      "utusan": 2361,
      "Ġfungsi": 2362,
      "Ġpelayanan": 2363,
      "ownload": 2364,
      "abi": 2365,
      "Ġsekaligus": 2366,
      "Ġkontr": 2367,
      "ĠMungkin": 2368,
      "uat": 2369,
      "Ġboleh": 2370,
      "ganya": 2371,
      "emat": 2372,
      "ĠKed": 2373,
      "alaupun": 2374,
      "baga": 2375,
      "Ġkarakter": 2376,
      "Ġsemoga": 2377,
      "Ġpembangunan": 2378,
      "port": 2379,
      "enj": 2380,
      "urusan": 2381,
      "Ġpenulis": 2382,
      "andangan": 2383,
      "Ġduduk": 2384,
      "aksana": 2385,
      "ey": 2386,
      "Ġaktivitas": 2387,
      "Ġapapun": 2388,
      "Ġsemp": 2389,
      "ujud": 2390,
      "Ġ2016": 2391,
      "onus": 2392,
      "Ġmenjadikan": 2393,
      "ĠMan": 2394,
      "Ġdihar": 2395,
      "10": 2396,
      "ibatkan": 2397,
      "Ġhotel": 2398,
      "antas": 2399,
      "Ġcoba": 2400,
      "vinsi": 2401,
      "Ġrendah": 2402,
      "Ġbutu": 2403,
      "ĠBa": 2404,
      "ĠTahun": 2405,
      "ulasi": 2406,
      "ulau": 2407,
      "KI": 2408,
      "EN": 2409,
      "hari": 2410,
      "Ġkand": 2411,
      "Ġbanget": 2412,
      "abat": 2413,
      "okok": 2414,
      "Ġbebas": 2415,
      "uki": 2416,
      "ase": 2417,
      "ĠSebelum": 2418,
      "Ġsukses": 2419,
      "Ġsar": 2420,
      "gn": 2421,
      "ustri": 2422,
      "Ġlay": 2423,
      "ukur": 2424,
      "ie": 2425,
      "Ġimp": 2426,
      "Ġselesai": 2427,
      "ĠTimur": 2428,
      "untu": 2429,
      "sama": 2430,
      "jakan": 2431,
      "her": 2432,
      "Ġ?": 2433,
      "Ġmilik": 2434,
      "Ġpertanyaan": 2435,
      "emuan": 2436,
      "utar": 2437,
      "Ġtind": 2438,
      "Ġterh": 2439,
      "Ġkatanya": 2440,
      "atal": 2441,
      "oll": 2442,
      "iku": 2443,
      "Ġmerasakan": 2444,
      "ĠKal": 2445,
      "50": 2446,
      "ĠAS": 2447,
      "iburan": 2448,
      "iksi": 2449,
      "Ġmusik": 2450,
      "tus": 2451,
      "Ġpelanggan": 2452,
      "ĠAmerika": 2453,
      "Ġwajib": 2454,
      "Ġte": 2455,
      "Ġasli": 2456,
      "Ġtanaman": 2457,
      "Ġbangsa": 2458,
      "ĠKemudian": 2459,
      "iah": 2460,
      "Ġpembuatan": 2461,
      "Ġmemperoleh": 2462,
      "Ġpolitik": 2463,
      "Ġantar": 2464,
      "Ġmengatasi": 2465,
      "Ġmenjelaskan": 2466,
      "obat": 2467,
      "ĠApakah": 2468,
      "Ġpengetahuan": 2469,
      "Ġpat": 2470,
      "Ġmenentukan": 2471,
      "Ġpantai": 2472,
      "etua": 2473,
      "to": 2474,
      "let": 2475,
      "Ġrep": 2476,
      "iew": 2477,
      "inginkan": 2478,
      "Ġpusat": 2479,
      "Ġdilihat": 2480,
      "ikap": 2481,
      "ayan": 2482,
      "Ġmenawarkan": 2483,
      "Ġpastinya": 2484,
      "usak": 2485,
      "Ġsurat": 2486,
      "Ġbank": 2487,
      "Ġmerah": 2488,
      "Ġbernama": 2489,
      "RI": 2490,
      "Ġtips": 2491,
      "ĠDis": 2492,
      "Ġdijual": 2493,
      "Ġpaket": 2494,
      "edar": 2495,
      "ĠHarga": 2496,
      "Ġto": 2497,
      "ersi": 2498,
      "Ġhalaman": 2499,
      "ilihan": 2500,
      "Ġprakt": 2501,
      "Ġakses": 2502,
      "Ġkonsumen": 2503,
      "Ġdemi": 2504,
      "Ġmetode": 2505,
      "aih": 2506,
      "Ġdianggap": 2507,
      "aruh": 2508,
      "Ġ18": 2509,
      "Ġinst": 2510,
      "Ġpengunjung": 2511,
      "Ġunik": 2512,
      "ingkatan": 2513,
      "Ġsoal": 2514,
      "Ġham": 2515,
      "ĠDa": 2516,
      "Ġberubah": 2517,
      "ĠSemua": 2518,
      "sel": 2519,
      "Ġnantinya": 2520,
      "uasa": 2521,
      "Ġberpikir": 2522,
      "Nya": 2523,
      "Ġrem": 2524,
      "akil": 2525,
      "Ġdag": 2526,
      "ĠRe": 2527,
      "Ġmarket": 2528,
      "ĠSum": 2529,
      "inal": 2530,
      "Ġkanker": 2531,
      "ĠYa": 2532,
      "Ġsilahkan": 2533,
      "isme": 2534,
      "iring": 2535,
      "jadikan": 2536,
      "bar": 2537,
      "Ġberc": 2538,
      "Ġkendaraan": 2539,
      "gerak": 2540,
      "Ġsempat": 2541,
      "engkapi": 2542,
      "AS": 2543,
      "yaran": 2544,
      "Ġdr": 2545,
      "ĠBr": 2546,
      "Ġminyak": 2547,
      "Ġcantik": 2548,
      "Ġtampil": 2549,
      "Ġdipakai": 2550,
      "Ġherbal": 2551,
      "hatian": 2552,
      "Ġid": 2553,
      "Ġcuma": 2554,
      "egah": 2555,
      "ĠKepala": 2556,
      "Ġmenyatakan": 2557,
      "Ġmenurunkan": 2558,
      "top": 2559,
      "Ġberlangsung": 2560,
      "elanja": 2561,
      "Ġlaki": 2562,
      "ega": 2563,
      "ĠRumah": 2564,
      "ĠAb": 2565,
      "Ġinginkan": 2566,
      "uah": 2567,
      "Ġus": 2568,
      "Ġsedangkan": 2569,
      "Ġah": 2570,
      "ĠTan": 2571,
      "Ġlog": 2572,
      "ester": 2573,
      "Ġbertanya": 2574,
      "tal": 2575,
      "Ġtab": 2576,
      "okus": 2577,
      "Ġminggu": 2578,
      "ĠPl": 2579,
      "ĠPak": 2580,
      "Sel": 2581,
      "Ġditemukan": 2582,
      "Ġdos": 2583,
      "Ġdibutuhkan": 2584,
      "Ġsebaiknya": 2585,
      "iwa": 2586,
      "Ġrut": 2587,
      "Ġut": 2588,
      "Ġpenyebab": 2589,
      "ĠLalu": 2590,
      "Ġgaya": 2591,
      "Ġberkualitas": 2592,
      "Ġmain": 2593,
      "Ġberikan": 2594,
      "Ġtambahan": 2595,
      "Ġmalah": 2596,
      "Ġruangan": 2597,
      "Ġdibawah": 2598,
      "epatan": 2599,
      "Ġpad": 2600,
      "Ġbantuan": 2601,
      "daf": 2602,
      "Ġtenaga": 2603,
      "Ġmemahami": 2604,
      "ijakan": 2605,
      "imak": 2606,
      "ĠSemoga": 2607,
      "Ġarah": 2608,
      "ebook": 2609,
      "jualan": 2610,
      "Ġgad": 2611,
      "ilangan": 2612,
      "Ġmengin": 2613,
      "Ġsaling": 2614,
      "awatan": 2615,
      "Ġaja": 2616,
      "Ġkompet": 2617,
      "Ġdijadikan": 2618,
      "Ġpin": 2619,
      "Ġpendapat": 2620,
      "mad": 2621,
      "fer": 2622,
      "anjutkan": 2623,
      "Ġ'": 2624,
      "Ġmati": 2625,
      "Ġcat": 2626,
      "Ġof": 2627,
      "Ġsenang": 2628,
      "Ġmenunggu": 2629,
      "Ġkalah": 2630,
      "unci": 2631,
      "omend": 2632,
      "udul": 2633,
      "ustru": 2634,
      "ĠRes": 2635,
      "Ġdimiliki": 2636,
      "ikah": 2637,
      "Ġmaj": 2638,
      "Ġro": 2639,
      "ilangkan": 2640,
      "daftar": 2641,
      "Ġsambil": 2642,
      "Ġbertemu": 2643,
      "Ġ11": 2644,
      "Ġ16": 2645,
      "sikan": 2646,
      "Ġkej": 2647,
      "ĠKetua": 2648,
      "engaruhi": 2649,
      "ĠSi": 2650,
      "Ġnasional": 2651,
      "ahasa": 2652,
      "AL": 2653,
      "Ġpemilik": 2654,
      "Ġpositif": 2655,
      "iner": 2656,
      "orong": 2657,
      "Ġsun": 2658,
      "ice": 2659,
      "Ġim": 2660,
      "Ġlima": 2661,
      "itan": 2662,
      "Ġkeamanan": 2663,
      "Ġmeja": 2664,
      "truk": 2665,
      "Ġsejarah": 2666,
      "Ġperhatian": 2667,
      "Ġbergabung": 2668,
      "angkau": 2669,
      "Ġpukul": 2670,
      "ukaan": 2671,
      "entar": 2672,
      "ĠBandung": 2673,
      "Ġketiga": 2674,
      "ediksi": 2675,
      "Ġnamanya": 2676,
      "ubungi": 2677,
      "tion": 2678,
      "olong": 2679,
      "Ġsup": 2680,
      "ĠThe": 2681,
      "Ġpeluang": 2682,
      "tab": 2683,
      "Ġtradisi": 2684,
      "ĠSej": 2685,
      "Ġsebanyak": 2686,
      "arakan": 2687,
      "onsel": 2688,
      "ĠGun": 2689,
      "ungkinkan": 2690,
      "Ġlayak": 2691,
      "Ġtadi": 2692,
      "Ġpah": 2693,
      "Ġmeskipun": 2694,
      "iks": 2695,
      "Ġbudaya": 2696,
      "Ġkorban": 2697,
      ".\"": 2698,
      "Ġkonsep": 2699,
      "ewasa": 2700,
      "Ġbr": 2701,
      "Ġkopi": 2702,
      "Ġpengobatan": 2703,
      "awasan": 2704,
      "aca": 2705,
      "ambat": 2706,
      "ampilkan": 2707,
      "Ġorganisasi": 2708,
      "Ġadmin": 2709,
      "Ġch": 2710,
      "Ġdidapat": 2711,
      "Ġyakin": 2712,
      "Ġmengandung": 2713,
      "uari": 2714,
      "Ġberagam": 2715,
      "Ġkeuangan": 2716,
      "Ġmenjual": 2717,
      "Ġmenambah": 2718,
      "Ġberkata": 2719,
      "Ġ14": 2720,
      "egang": 2721,
      "Ġarea": 2722,
      "Ġtanda": 2723,
      "Ġlaut": 2724,
      "Ġsebaga": 2725,
      "urna": 2726,
      "otal": 2727,
      "Ġdiperlukan": 2728,
      "adakan": 2729,
      "Ġsehar": 2730,
      "Ġmenyenangkan": 2731,
      "antikan": 2732,
      "erit": 2733,
      "ĠHanya": 2734,
      "Ġpersen": 2735,
      "utuskan": 2736,
      "ĠDPR": 2737,
      "laki": 2738,
      "Ġgag": 2739,
      "atar": 2740,
      "okan": 2741,
      "ĠMad": 2742,
      "Ġapalagi": 2743,
      "Ġpener": 2744,
      "ĠPemb": 2745,
      "ajari": 2746,
      "Ġpembayaran": 2747,
      "alisasi": 2748,
      "tian": 2749,
      "Ġbal": 2750,
      "Ġmerek": 2751,
      "olak": 2752,
      "itus": 2753,
      "awatir": 2754,
      "12": 2755,
      "Ġkhas": 2756,
      "esaikan": 2757,
      "Ġberita": 2758,
      "Ġmaksimal": 2759,
      "AK": 2760,
      "Ġtulisan": 2761,
      "Ġtransaksi": 2762,
      "ĠPemerintah": 2763,
      "ĠObat": 2764,
      "etul": 2765,
      "inginan": 2766,
      "dukung": 2767,
      "Ġsub": 2768,
      "Ġbertu": 2769,
      "Ġkos": 2770,
      "Ġma": 2771,
      "ĠBali": 2772,
      "Ġprofesional": 2773,
      "Ġsuami": 2774,
      "Ġefektif": 2775,
      "Ġmenciptakan": 2776,
      "alur": 2777,
      "Ġkandungan": 2778,
      "Ġberbelanja": 2779,
      "Ġjer": 2780,
      "urus": 2781,
      "ex": 2782,
      "iti": 2783,
      "Ġmengurangi": 2784,
      "Ġapi": 2785,
      "adinya": 2786,
      "ci": 2787,
      "ĠKam": 2788,
      "enter": 2789,
      "Ġkau": 2790,
      "baya": 2791,
      "Ġbangunan": 2792,
      "Ġdimulai": 2793,
      "Ġduk": 2794,
      "Ġkayu": 2795,
      "Ġoperasi": 2796,
      "Ġsamping": 2797,
      "abr": 2798,
      "tumbuhan": 2799,
      "Ġrev": 2800,
      "atus": 2801,
      "aksud": 2802,
      "aga": 2803,
      "ĠPara": 2804,
      "Ġversi": 2805,
      "tua": 2806,
      "wi": 2807,
      "Ġbonus": 2808,
      "Ġkalangan": 2809,
      "alian": 2810,
      "Ġindustri": 2811,
      "OM": 2812,
      "Ġener": 2813,
      "Ġ13": 2814,
      "Ġmemulai": 2815,
      "Ġdidalam": 2816,
      "Ġhi": 2817,
      "Ġbus": 2818,
      "Ġpopuler": 2819,
      "Ġketah": 2820,
      "istrik": 2821,
      "ĠSelatan": 2822,
      "edaan": 2823,
      "util": 2824,
      "tudi": 2825,
      "ĠDr": 2826,
      "Ġjustru": 2827,
      "Ġint": 2828,
      "Ġmenambahkan": 2829,
      "ĠMeskipun": 2830,
      "elasan": 2831,
      "Ġwas": 2832,
      "amping": 2833,
      "Ġsur": 2834,
      "daftaran": 2835,
      "pek": 2836,
      "ation": 2837,
      "Ġfisik": 2838,
      "Ġmendengar": 2839,
      "Ġsebagainya": 2840,
      "der": 2841,
      "urangan": 2842,
      "dag": 2843,
      "PK": 2844,
      "guna": 2845,
      "osit": 2846,
      "Ġpar": 2847,
      "Ġinilah": 2848,
      "Ġbro": 2849,
      "Ġ|": 2850,
      "ĠPresiden": 2851,
      "Ġbes": 2852,
      "uali": 2853,
      "Ġudah": 2854,
      "Ġlemb": 2855,
      "Ġtakut": 2856,
      "Ġminim": 2857,
      "Ġmengenal": 2858,
      "Ġmemungkinkan": 2859,
      "Ġmed": 2860,
      "iat": 2861,
      "Ġmahal": 2862,
      "Ġpotensi": 2863,
      "roduksi": 2864,
      "ĠOrang": 2865,
      "anggu": 2866,
      "esifikasi": 2867,
      "ubern": 2868,
      "asilan": 2869,
      "Ġes": 2870,
      "ikin": 2871,
      "Ġlaga": 2872,
      "Ġmeraih": 2873,
      "enerasi": 2874,
      "ubernur": 2875,
      "ijau": 2876,
      "intang": 2877,
      "AH": 2878,
      "Ġdiharapkan": 2879,
      "ez": 2880,
      "Ġkhawatir": 2881,
      "Ġpulang": 2882,
      "Ġko": 2883,
      "Ġterbesar": 2884,
      "iko": 2885,
      "ĠProduk": 2886,
      "Ġhitam": 2887,
      "upati": 2888,
      "ĠBukan": 2889,
      "Ġnorm": 2890,
      "Ġpay": 2891,
      "Ġteknik": 2892,
      "asitas": 2893,
      "Ġmengel": 2894,
      "Ġbergerak": 2895,
      "ret": 2896,
      "ee": 2897,
      "ĠMin": 2898,
      "urabaya": 2899,
      "jek": 2900,
      "asis": 2901,
      "Ġlokal": 2902,
      "ulus": 2903,
      "Ġdewasa": 2904,
      "Ġ17": 2905,
      "jadian": 2906,
      "Ġtampak": 2907,
      "Ġmenjalankan": 2908,
      "Ġmodern": 2909,
      "isip": 2910,
      "Ġ2015": 2911,
      "timb": 2912,
      "Ġmemastikan": 2913,
      "rah": 2914,
      "Ġlayar": 2915,
      "ĠUniversitas": 2916,
      "Ġdita": 2917,
      "Ġpengel": 2918,
      "ebat": 2919,
      "ahat": 2920,
      "age": 2921,
      "Ġgejala": 2922,
      "ĠGoogle": 2923,
      "eter": 2924,
      "ĠAndroid": 2925,
      "Ġtau": 2926,
      "ĠAgus": 2927,
      "arta": 2928,
      "ware": 2929,
      "ork": 2930,
      "dul": 2931,
      "Ġstrategi": 2932,
      "Ġrah": 2933,
      "Ġsemangat": 2934,
      "arin": 2935,
      "Ġmemanfaatkan": 2936,
      "ĠSetiap": 2937,
      "Ġ24": 2938,
      "ĠAir": 2939,
      "Ġsifat": 2940,
      "PU": 2941,
      "Ġjarang": 2942,
      "Ġagak": 2943,
      "Ġjadwal": 2944,
      "Ġayah": 2945,
      "ĠBl": 2946,
      "Ġer": 2947,
      "ĠSam": 2948,
      "Ġhilang": 2949,
      "baru": 2950,
      "Ġmanaj": 2951,
      "Ġdiak": 2952,
      "Ġdukungan": 2953,
      "itung": 2954,
      "Ġmengapa": 2955,
      "ast": 2956,
      "ĠJudi": 2957,
      "ĠAh": 2958,
      "usun": 2959,
      "Ġvir": 2960,
      "acebook": 2961,
      "Ġ50": 2962,
      "Ġtipe": 2963,
      "isten": 2964,
      "Ġjatuh": 2965,
      "jaga": 2966,
      "ono": 2967,
      "ĠAkan": 2968,
      "Ġmur": 2969,
      "Ġbersi": 2970,
      "Ġrakyat": 2971,
      "Ġponsel": 2972,
      "Ġberdiri": 2973,
      "esanan": 2974,
      "Ġkehilangan": 2975,
      "Ġsepak": 2976,
      "Ġpola": 2977,
      "Ġasing": 2978,
      "bo": 2979,
      "arankan": 2980,
      "Ġmengeluarkan": 2981,
      "Saya": 2982,
      "Ġdilaksanakan": 2983,
      "warna": 2984,
      "Ġupaya": 2985,
      "Ġpenderita": 2986,
      "Ġfile": 2987,
      "teman": 2988,
      "Ġrup": 2989,
      "Ġterbuka": 2990,
      "uliah": 2991,
      "istik": 2992,
      "Un": 2993,
      "Ġudara": 2994,
      "Ġhand": 2995,
      "Ġmeninggalkan": 2996,
      "ĠKecamatan": 2997,
      "30": 2998,
      "Ġbl": 2999,
      "20": 3000,
      "ĠIbu": 3001,
      "Ġkebijakan": 3002,
      "uktikan": 3003,
      "Ġtiap": 3004,
      "ht": 3005,
      "tik": 3006,
      "tarik": 3007,
      "Ġdisebabkan": 3008,
      "isnis": 3009,
      "elengg": 3010,
      "ĠSy": 3011,
      "ĠOk": 3012,
      "Ġtangga": 3013,
      "ĠKon": 3014,
      "Ġtindakan": 3015,
      "etapkan": 3016,
      "ujan": 3017,
      "aitan": 3018,
      "engkapnya": 3019,
      "ĠBagaimana": 3020,
      "Ġahli": 3021,
      "Ġmiliki": 3022,
      "Ġmemutuskan": 3023,
      "ahari": 3024,
      "Ġemas": 3025,
      "Ġpakaian": 3026,
      "Ġdaging": 3027,
      "Ġsepanjang": 3028,
      "Ġdikatakan": 3029,
      "Ġseni": 3030,
      "resi": 3031,
      "Ġbanyaknya": 3032,
      "oma": 3033,
      "ham": 3034,
      "ĠDemikian": 3035,
      "tah": 3036,
      "Ġindonesia": 3037,
      "In": 3038,
      "siapkan": 3039,
      "Ġsin": 3040,
      "yarat": 3041,
      "Ġperawatan": 3042,
      "Ġpertumbuhan": 3043,
      "idik": 3044,
      "Ġtamu": 3045,
      "Ġmengembangkan": 3046,
      "Ġmenimb": 3047,
      "Ġjiwa": 3048,
      "Ġkapan": 3049,
      "Ġenergi": 3050,
      "ĠBila": 3051,
      "efer": 3052,
      "ĠGr": 3053,
      "untut": 3054,
      "omba": 3055,
      "pon": 3056,
      "Ġsolusi": 3057,
      "sia": 3058,
      "Ġanti": 3059,
      "Ġproyek": 3060,
      "Ġminum": 3061,
      "agia": 3062,
      "endak": 3063,
      "air": 3064,
      "ĠSen": 3065,
      "evel": 3066,
      "rav": 3067,
      "Ġpintu": 3068,
      "Ġistri": 3069,
      "Ġjantung": 3070,
      "Ġulang": 3071,
      "Ġ199": 3072,
      "ĠII": 3073,
      "Ġpendek": 3074,
      "jid": 3075,
      "Ġbib": 3076,
      "ade": 3077,
      "Ġsempurna": 3078,
      "uci": 3079,
      "ĠDin": 3080,
      "ĠMuh": 3081,
      "Ġkelamin": 3082,
      "obati": 3083,
      "Ġkul": 3084,
      "ĠPoker": 3085,
      "Ġlistrik": 3086,
      "Ġtergantung": 3087,
      "Ġberlaku": 3088,
      "Ġketahui": 3089,
      "ikahan": 3090,
      "Ġtokoh": 3091,
      "Ġam": 3092,
      "orit": 3093,
      "adu": 3094,
      "ll": 3095,
      "oni": 3096,
      "Ġberikutnya": 3097,
      "Ġdikar": 3098,
      "etik": 3099,
      "ĠHari": 3100,
      "entasi": 3101,
      "oo": 3102,
      "ĠMak": 3103,
      "Ġtogel": 3104,
      "Ġkesel": 3105,
      "Ġberbagi": 3106,
      "fikasi": 3107,
      "ser": 3108,
      "tup": 3109,
      "Ġuc": 3110,
      "Ġev": 3111,
      "Ġmengunjungi": 3112,
      "Ġtotal": 3113,
      "Ġdiantaranya": 3114,
      "Ġtas": 3115,
      "Ġiklan": 3116,
      "tra": 3117,
      "ĠAnak": 3118,
      "ayani": 3119,
      "sur": 3120,
      "Ġent": 3121,
      "Ġkenapa": 3122,
      "erd": 3123,
      "Ġringan": 3124,
      "Ġdaripada": 3125,
      "Ġgo": 3126,
      "ening": 3127,
      "angkap": 3128,
      "Ġberhubungan": 3129,
      "olog": 3130,
      "Ġkomunikasi": 3131,
      "ĠNegara": 3132,
      "impi": 3133,
      "ock": 3134,
      "Ġmencegah": 3135,
      "Ġ#": 3136,
      "Ġdalamnya": 3137,
      "uluh": 3138,
      "ĠMa": 3139,
      "abel": 3140,
      "Ġdiambil": 3141,
      "Ġpulau": 3142,
      "Ġrutin": 3143,
      "Ġ25": 3144,
      "!!": 3145,
      "aransi": 3146,
      "erang": 3147,
      "Ġlahir": 3148,
      "our": 3149,
      "Ġrata": 3150,
      "Ġwis": 3151,
      "Ġinvestasi": 3152,
      "Ġartinya": 3153,
      "Ġtekan": 3154,
      "Ġ2014": 3155,
      "Ġkak": 3156,
      "ĠBar": 3157,
      "iksa": 3158,
      "Ġisi": 3159,
      "yo": 3160,
      "Ġenak": 3161,
      "ĠIntern": 3162,
      "ĠIr": 3163,
      "isiko": 3164,
      "Ġmembayar": 3165,
      "Ġberapa": 3166,
      "ungguhnya": 3167,
      "Ġmenghilangkan": 3168,
      "Ġtertarik": 3169,
      "Ġcari": 3170,
      "Ġseharusnya": 3171,
      "Ġkelebihan": 3172,
      "ampung": 3173,
      "Ġperj": 3174,
      "por": 3175,
      "iru": 3176,
      "TA": 3177,
      "ĠPeny": 3178,
      "ĠUS": 3179,
      "Ġpenduduk": 3180,
      "Ġbin": 3181,
      "ayakan": 3182,
      "ĠMisalnya": 3183,
      "Ġkaryawan": 3184,
      "ĠSD": 3185,
      "Ġpoin": 3186,
      "ĠMakan": 3187,
      "ansi": 3188,
      "Ġpec": 3189,
      "Ġstandar": 3190,
      "dang": 3191,
      "osok": 3192,
      "ĠSebab": 3193,
      "Ġdiberi": 3194,
      "Ġkre": 3195,
      "19": 3196,
      "ĠUtara": 3197,
      "Ġpikiran": 3198,
      "Ġtemp": 3199,
      "audara": 3200,
      "Ġmenghar": 3201,
      "Ġkeputusan": 3202,
      "Ġsiang": 3203,
      "Ġperut": 3204,
      "ĠIb": 3205,
      "erintahan": 3206,
      "ĠApalagi": 3207,
      "Ġberhenti": 3208,
      "Ġpenjualan": 3209,
      "entang": 3210,
      "ĠSurabaya": 3211,
      "Ġmandi": 3212,
      "abila": 3213,
      "Ġmenimbulkan": 3214,
      "Ġpemimpin": 3215,
      "idaknya": 3216,
      "Ġdaun": 3217,
      "Ġterbuat": 3218,
      "Ġmengaku": 3219,
      "Ġmembuatnya": 3220,
      "omatis": 3221,
      "Ġbaca": 3222,
      "Ġkamera": 3223,
      "Ġpendaftaran": 3224,
      "Ġaturan": 3225,
      "Ġq": 3226,
      "Ġperc": 3227,
      "Ġhamil": 3228,
      "Ġmelawan": 3229,
      "ĠKr": 3230,
      "aliknya": 3231,
      "Ġkeinginan": 3232,
      "umb": 3233,
      "kar": 3234,
      "Ġbutuh": 3235,
      "Ġaj": 3236,
      "ewati": 3237,
      "ĠAgen": 3238,
      "eny": 3239,
      "Ġkunci": 3240,
      "Ġtahap": 3241,
      "ĠKh": 3242,
      "buhkan": 3243,
      "PS": 3244,
      "igi": 3245,
      "adiah": 3246,
      "Ġterm": 3247,
      "Ġmengirim": 3248,
      "iliar": 3249,
      "Ġzaman": 3250,
      "Ġtampilan": 3251,
      "uji": 3252,
      "Ġbaju": 3253,
      "ĠEk": 3254,
      "Ġhijau": 3255,
      "Ġmengingat": 3256,
      "Ġmembahas": 3257,
      "ĠNegeri": 3258,
      "ce": 3259,
      "hit": 3260,
      "Ġmemainkan": 3261,
      "Ġmal": 3262,
      "ĠDir": 3263,
      "Ġnyata": 3264,
      "ĠTNI": 3265,
      "Ġterbukti": 3266,
      "ĠMeski": 3267,
      "iling": 3268,
      "Ġtitik": 3269,
      "Ġberbicara": 3270,
      "ros": 3271,
      "Ġbandar": 3272,
      "endiri": 3273,
      "indah": 3274,
      "Ġpemesanan": 3275,
      "ĠSecara": 3276,
      "uny": 3277,
      "Ġpertemuan": 3278,
      "Ġmenutup": 3279,
      "Ġpenjual": 3280,
      "Ġmenjawab": 3281,
      "tas": 3282,
      "ampang": 3283,
      "unda": 3284,
      "Ġperbedaan": 3285,
      "NS": 3286,
      "Ġjalur": 3287,
      "ĠUmum": 3288,
      "Ġsepatu": 3289,
      "irip": 3290,
      "Ġdipas": 3291,
      "okasi": 3292,
      "Ġterkena": 3293,
      "fa": 3294,
      "sh": 3295,
      "uskan": 3296,
      "aksa": 3297,
      "ĠNo": 3298,
      "Ġditerima": 3299,
      "irasi": 3300,
      "Ġmendatang": 3301,
      "askan": 3302,
      "elar": 3303,
      "isti": 3304,
      "tifikasi": 3305,
      "Ġhabis": 3306,
      "Ġbukanlah": 3307,
      "Ġpublik": 3308,
      "Ġminuman": 3309,
      "Ġkuliah": 3310,
      "Ġsayang": 3311,
      "dari": 3312,
      "ĠPadahal": 3313,
      "angguan": 3314,
      "Ġmengubah": 3315,
      "Ġdikarenakan": 3316,
      "Ġbukti": 3317,
      "ĠProvinsi": 3318,
      "mainkan": 3319,
      "ĠBank": 3320,
      "juan": 3321,
      "Ġbumi": 3322,
      "Ġpernikahan": 3323,
      "Ġbul": 3324,
      "Kami": 3325,
      "ancar": 3326,
      "Ġkesalahan": 3327,
      "Ġkereta": 3328,
      "Ġtrading": 3329,
      "bul": 3330,
      "Ġmenyampaikan": 3331,
      "ĠTentu": 3332,
      "Ġkebanyakan": 3333,
      "ĠRas": 3334,
      "itis": 3335,
      "Ġtertu": 3336,
      "ivid": 3337,
      "Ġemail": 3338,
      "Ġfokus": 3339,
      "Ġpetu": 3340,
      "Ġposting": 3341,
      "dus": 3342,
      "Ġseper": 3343,
      "ĠHasil": 3344,
      "ema": 3345,
      "Ġnormal": 3346,
      "ĠDunia": 3347,
      "Ġdihad": 3348,
      "ĠPulau": 3349,
      "Ġterima": 3350,
      "ĠPi": 3351,
      "utr": 3352,
      "edung": 3353,
      "Ġberwarna": 3354,
      "Ġresep": 3355,
      "Ġkejadian": 3356,
      "Ġgenerasi": 3357,
      "empatkan": 3358,
      "Ġhujan": 3359,
      "Ġbilang": 3360,
      "ĠSatu": 3361,
      "Ġmenghadapi": 3362,
      "Ġme": 3363,
      "Ġjarak": 3364,
      "Ġpohon": 3365,
      "asino": 3366,
      "ahu": 3367,
      "Ġperl": 3368,
      "Ġperi": 3369,
      "esuaikan": 3370,
      "ĠPal": 3371,
      "Ġrencana": 3372,
      "Ġlel": 3373,
      "udahan": 3374,
      "impinan": 3375,
      "âĢľ": 3376,
      "Ġdikirim": 3377,
      "Ġguna": 3378,
      "Ġmelaksanakan": 3379,
      "Ġujar": 3380,
      "Ġlembaga": 3381,
      "angani": 3382,
      "Ġinternasional": 3383,
      "Ġsikap": 3384,
      "ĠSMA": 3385,
      "ibur": 3386,
      "Ġbenda": 3387,
      "Ġmuslim": 3388,
      "atat": 3389,
      "Ġpelaku": 3390,
      "Ġsusah": 3391,
      "Ġmil": 3392,
      "Ġpasi": 3393,
      "âĢĿ,": 3394,
      "Ġdap": 3395,
      "Ġmakin": 3396,
      "11": 3397,
      "Ġmenikah": 3398,
      "Ġband": 3399,
      "asia": 3400,
      "ĠTengah": 3401,
      "Ġkering": 3402,
      "sihkan": 3403,
      "ton": 3404,
      "wisata": 3405,
      "Ġditaw": 3406,
      "ĠLa": 3407,
      "ĠTh": 3408,
      "Ġbertahan": 3409,
      "rat": 3410,
      "luk": 3411,
      "sik": 3412,
      "baiki": 3413,
      "intai": 3414,
      "masalahan": 3415,
      "ĠBat": 3416,
      "Ġbelanja": 3417,
      "ĠNov": 3418,
      "Ġcab": 3419,
      "ĠContoh": 3420,
      "Ġrasanya": 3421,
      "Ġpenjelasan": 3422,
      "Ġmempert": 3423,
      "Ġbe": 3424,
      "Ġkaum": 3425,
      "ĠTi": 3426,
      "Ġburung": 3427,
      "Ġlawan": 3428,
      "Ġkaya": 3429,
      "lat": 3430,
      "inding": 3431,
      "do": 3432,
      "Ġpengembangan": 3433,
      "Ġdimainkan": 3434,
      "Ġotomatis": 3435,
      "Ġmelayani": 3436,
      "ĠIm": 3437,
      "Ġkadang": 3438,
      "Ġseng": 3439,
      "ĠEro": 3440,
      "anian": 3441,
      "yataan": 3442,
      "udahkan": 3443,
      "Ġmemerlukan": 3444,
      "Ġdeposit": 3445,
      "orea": 3446,
      "Ġsay": 3447,
      "oritas": 3448,
      "ĠWar": 3449,
      "Ġulasan": 3450,
      "Ġpeningkatan": 3451,
      "jas": 3452,
      "aji": 3453,
      "Ġbersifat": 3454,
      "Ġsituasi": 3455,
      "ĠSE": 3456,
      "Ġamb": 3457,
      "emi": 3458,
      "ĠApabila": 3459,
      "iasaan": 3460,
      "orex": 3461,
      "ead": 3462,
      "amkan": 3463,
      "ĠPendidikan": 3464,
      "Ġbing": 3465,
      "Ġkapal": 3466,
      "Ġharapan": 3467,
      "Ġpelaksana": 3468,
      "egori": 3469,
      "no": 3470,
      "Ġperasaan": 3471,
      "Ġberkaitan": 3472,
      "ĠSekarang": 3473,
      "Ġpembelajaran": 3474,
      "ĠMuham": 3475,
      "ampai": 3476,
      "ick": 3477,
      "ungkapkan": 3478,
      "Ġseksual": 3479,
      "place": 3480,
      "Ġtradisional": 3481,
      "Ġsebagaimana": 3482,
      "ĠAceh": 3483,
      "mer": 3484,
      "Ġinter": 3485,
      "Ġsingkat": 3486,
      "Ġdilengkapi": 3487,
      "waj": 3488,
      "Ġlantai": 3489,
      "itra": 3490,
      "ower": 3491,
      "ĠBisa": 3492,
      "enuh": 3493,
      "asana": 3494,
      "Ġ2013": 3495,
      "Ġkisah": 3496,
      "ĠBupati": 3497,
      "alat": 3498,
      "Ġrum": 3499,
      "ĠItulah": 3500,
      "Ġkapasitas": 3501,
      "Ġmeski": 3502,
      "Ġkomunitas": 3503,
      "Ġinfo": 3504,
      "Ġhasilnya": 3505,
      "Ġkalo": 3506,
      "ĠEropa": 3507,
      "Ġperan": 3508,
      "Ġkecepatan": 3509,
      "Ġberguna": 3510,
      "Ġfr": 3511,
      "ograf": 3512,
      "ĠDinas": 3513,
      "Ġungk": 3514,
      "Ġmengatur": 3515,
      "Ġmempengaruhi": 3516,
      "ĠLiga": 3517,
      "uransi": 3518,
      "IB": 3519,
      "th": 3520,
      "Ġtop": 3521,
      "Ġnasi": 3522,
      "ips": 3523,
      "Ġditawarkan": 3524,
      "Ġperp": 3525,
      "toran": 3526,
      "ĠYog": 3527,
      "ww": 3528,
      "Ġtarget": 3529,
      "Ġotak": 3530,
      "harga": 3531,
      "urang": 3532,
      "yakarta": 3533,
      "Ġdiskon": 3534,
      "ĠSab": 3535,
      "omer": 3536,
      "Ġlum": 3537,
      "Ġamp": 3538,
      "Ġjangka": 3539,
      "Ġingat": 3540,
      "Ġreg": 3541,
      "ĠUs": 3542,
      "Ġinfeksi": 3543,
      "Ġlink": 3544,
      "bi": 3545,
      "Ġayat": 3546,
      "Ġli": 3547,
      "Ġmatahari": 3548,
      "uruan": 3549,
      "asnya": 3550,
      "Ġmemenangkan": 3551,
      "Ġberani": 3552,
      "ĠDep": 3553,
      "Ġgigi": 3554,
      "Ġberfungsi": 3555,
      "AB": 3556,
      "Ġmengerti": 3557,
      "ny": 3558,
      "Ġandroid": 3559,
      "Ġlemak": 3560,
      "Ġpember": 3561,
      "taf": 3562,
      "epon": 3563,
      "undang": 3564,
      "Ġgangguan": 3565,
      "indahan": 3566,
      "asah": 3567,
      "Ġindivid": 3568,
      "Ġusah": 3569,
      "ĠMod": 3570,
      "ĠAtau": 3571,
      "ĠKer": 3572,
      "Ġder": 3573,
      "Ġdingin": 3574,
      "ren": 3575,
      "ĠLebih": 3576,
      "Ġkursi": 3577,
      "ON": 3578,
      "Ġmeter": 3579,
      "Ġsuper": 3580,
      "eferensi": 3581,
      "ĠTekn": 3582,
      "Ġremaja": 3583,
      "Ġpenampilan": 3584,
      "Ġok": 3585,
      "ĠBiasanya": 3586,
      "unjuk": 3587,
      "ANG": 3588,
      "Ġsimp": 3589,
      "istiwa": 3590,
      "Ġkutil": 3591,
      "ĠGubernur": 3592,
      "esus": 3593,
      "Ġliburan": 3594,
      "ebr": 3595,
      "Ġkepad": 3596,
      "egal": 3597,
      "ĠFak": 3598,
      "emar": 3599,
      "sek": 3600,
      "Ġberakhir": 3601,
      "An": 3602,
      "ullah": 3603,
      "wit": 3604,
      "Ġunit": 3605,
      "ulitan": 3606,
      "Ġlaporan": 3607,
      "Ġmengisi": 3608,
      "ektur": 3609,
      "egan": 3610,
      "apnya": 3611,
      "Ġmanis": 3612,
      "ass": 3613,
      "Ġsepeda": 3614,
      "Ġberusia": 3615,
      "Ġmarketplace": 3616,
      "Ġbab": 3617,
      "Ġkeduanya": 3618,
      "avorit": 3619,
      "ĠBegitu": 3620,
      "ĠNasional": 3621,
      "ĠKap": 3622,
      "ment": 3623,
      "DI": 3624,
      "Ġamat": 3625,
      "ĠSil": 3626,
      "Ġmelainkan": 3627,
      "Ġreview": 3628,
      "Ġx": 3629,
      "Ġtahan": 3630,
      "Ġwalaupun": 3631,
      "unjungan": 3632,
      "Ġterjadinya": 3633,
      "Ġsemb": 3634,
      "lob": 3635,
      "Ġvari": 3636,
      "Ġsuasana": 3637,
      "Ġmom": 3638,
      "osan": 3639,
      "Ġkekurangan": 3640,
      "Ġdimaksud": 3641,
      "inerja": 3642,
      "ternatif": 3643,
      "ĠMat": 3644,
      "Ġbalik": 3645,
      "Ġserius": 3646,
      "uf": 3647,
      "tivasi": 3648,
      "aim": 3649,
      "abiskan": 3650,
      "isipasi": 3651,
      "ĠRI": 3652,
      "ilaku": 3653,
      "Ġkredit": 3654,
      "Ġhewan": 3655,
      "TI": 3656,
      "elajari": 3657,
      "Ġnas": 3658,
      "ĠFil": 3659,
      "ĠPut": 3660,
      "Ġhadiah": 3661,
      "was": 3662,
      "ool": 3663,
      "Ġpenis": 3664,
      "Ġbikin": 3665,
      "entingan": 3666,
      "dagangan": 3667,
      "Ġgerakan": 3668,
      "Ġmemperhatikan": 3669,
      "PP": 3670,
      "tiba": 3671,
      "abatan": 3672,
      "Ġthe": 3673,
      "engaruh": 3674,
      "irikan": 3675,
      "Ġmemudahkan": 3676,
      "ĠâĢĿ": 3677,
      "ial": 3678,
      "unikasi": 3679,
      "akaan": 3680,
      "ental": 3681,
      "Ġlapangan": 3682,
      "ĠDaerah": 3683,
      "ull": 3684,
      "ĠKen": 3685,
      "Ġsobat": 3686,
      "Ġmenyelesaikan": 3687,
      "ĠAkhir": 3688,
      "Ġmengaj": 3689,
      "utkan": 3690,
      "ĠSitus": 3691,
      "Ġterjangkau": 3692,
      "Ġmelanjutkan": 3693,
      "enting": 3694,
      "alahkan": 3695,
      "Ġno": 3696,
      "jasama": 3697,
      "Ġali": 3698,
      "Ġpembelian": 3699,
      "Ġpenerb": 3700,
      "Ġspesi": 3701,
      "Ġpermasalahan": 3702,
      "Ġmenemp": 3703,
      "Ġmenyebutkan": 3704,
      "Ġtema": 3705,
      "angkit": 3706,
      "Ġumat": 3707,
      "Ġpemerintahan": 3708,
      "Ġklub": 3709,
      "asiun": 3710,
      "ĠJer": 3711,
      "Ġlahan": 3712,
      "date": 3713,
      "Ġperiode": 3714,
      "Ġselamat": 3715,
      "iriman": 3716,
      "Ġterbatas": 3717,
      "Ġlaptop": 3718,
      "Ġsl": 3719,
      "ebaran": 3720,
      "Ġhid": 3721,
      "Ġlatihan": 3722,
      "eal": 3723,
      "OS": 3724,
      "elang": 3725,
      "Ġperg": 3726,
      "Ġang": 3727,
      "Ġsahabat": 3728,
      "Ġkesulitan": 3729,
      "Ġkemarin": 3730,
      "beda": 3731,
      "ĠYo": 3732,
      "Ġbo": 3733,
      "ĠAgustus": 3734,
      "ipta": 3735,
      "ĠRam": 3736,
      "Ġrisiko": 3737,
      "ektr": 3738,
      "Ġoptim": 3739,
      "ĠMemang": 3740,
      "Ġmembentuk": 3741,
      "Ġramah": 3742,
      "Ġungg": 3743,
      "abrik": 3744,
      "edakan": 3745,
      "dan": 3746,
      "Ġdll": 3747,
      "...]": 3748,
      "ikiran": 3749,
      "Ġkok": 3750,
      "awaran": 3751,
      "Ġbertambah": 3752,
      "Ġberbahaya": 3753,
      "Ġwisat": 3754,
      "ravel": 3755,
      "Ġteb": 3756,
      "Ġtambah": 3757,
      "Ġanggaran": 3758,
      "istrasi": 3759,
      "Ġpasien": 3760,
      "ovasi": 3761,
      "atian": 3762,
      "sinya": 3763,
      "olan": 3764,
      "Ġhendak": 3765,
      "entunya": 3766,
      "egaw": 3767,
      "Ġ$": 3768,
      "Ġsegi": 3769,
      "Ġrupiah": 3770,
      "Ġspesifikasi": 3771,
      "mb": 3772,
      "indungi": 3773,
      "Ġmirip": 3774,
      "Ġfor": 3775,
      "Ġgagal": 3776,
      "anduan": 3777,
      "usakan": 3778,
      "ost": 3779,
      "intas": 3780,
      "coin": 3781,
      "erai": 3782,
      "Ġmenampilkan": 3783,
      "Ġdipilih": 3784,
      "Ġdigital": 3785,
      "Ġkonsumsi": 3786,
      "ontr": 3787,
      "Ġsusu": 3788,
      "Ġpri": 3789,
      "alatan": 3790,
      "Ġbingung": 3791,
      "ĠBahasa": 3792,
      "Ġtekanan": 3793,
      "ĠJan": 3794,
      "Ġawalnya": 3795,
      "enya": 3796,
      "Ġpemer": 3797,
      "amakan": 3798,
      "Ġmenghindari": 3799,
      "Ġtanggung": 3800,
      "krip": 3801,
      "rata": 3802,
      "nah": 3803,
      "ðŁ": 3804,
      "ĠEl": 3805,
      "ash": 3806,
      "Ġgadis": 3807,
      "idah": 3808,
      "egara": 3809,
      "Ġsadar": 3810,
      "Ġmenyimpan": 3811,
      "unuh": 3812,
      "fi": 3813,
      "ĠYogyakarta": 3814,
      "egiatan": 3815,
      "andai": 3816,
      "Ġkenc": 3817,
      "utur": 3818,
      "intaan": 3819,
      "ĠAsia": 3820,
      "imia": 3821,
      "Ġarti": 3822,
      "Ġdini": 3823,
      "Ġtenang": 3824,
      "Ġharganya": 3825,
      "Ġpartai": 3826,
      "Ġgaris": 3827,
      "Ġgue": 3828,
      "owi": 3829,
      "ĠSul": 3830,
      "orasi": 3831,
      "ĠMed": 3832,
      "Ġsc": 3833,
      "ES": 3834,
      "Ġmelakukannya": 3835,
      "Ġmulut": 3836,
      "rop": 3837,
      "Ġtes": 3838,
      "ida": 3839,
      "ĠGer": 3840,
      "Ġteks": 3841,
      "its": 3842,
      "Ġberper": 3843,
      "Ġkategori": 3844,
      "untungkan": 3845,
      "Ġhutan": 3846,
      "ilitas": 3847,
      "ĠSudah": 3848,
      "Ġstudi": 3849,
      "ĠRasul": 3850,
      "ĠBaru": 3851,
      "Ġmiliar": 3852,
      "itamin": 3853,
      "ambung": 3854,
      "Ġ)": 3855,
      "Ġbatas": 3856,
      "Ġgam": 3857,
      "Ġbintang": 3858,
      "Ġberisi": 3859,
      "Ġmelewati": 3860,
      "ĠHP": 3861,
      "ĠTerl": 3862,
      "andiri": 3863,
      "Ġtek": 3864,
      "ĠIl": 3865,
      "airan": 3866,
      "Ġminimal": 3867,
      "Ġrusak": 3868,
      "Ġragu": 3869,
      "Ġhalnya": 3870,
      "Ġpelajaran": 3871,
      "Ġdownload": 3872,
      "Ġjudul": 3873,
      "ĠYesus": 3874,
      "onda": 3875,
      "Ġdampak": 3876,
      "Ġjuara": 3877,
      "Ġmesti": 3878,
      "entuan": 3879,
      "Ġkonten": 3880,
      "Ġdetail": 3881,
      "mat": 3882,
      "Ġkun": 3883,
      "Ġanaknya": 3884,
      "itcoin": 3885,
      "Ġsebelah": 3886,
      "Ġtelur": 3887,
      "itasi": 3888,
      "ĠProgram": 3889,
      "\".": 3890,
      "ĠNew": 3891,
      "Ġkonf": 3892,
      "ĠMo": 3893,
      "Ġcem": 3894,
      "Ġangk": 3895,
      "Ġambil": 3896,
      "Ġdiperoleh": 3897,
      "tis": 3898,
      "ĠRi": 3899,
      "ril": 3900,
      "Ġdiam": 3901,
      "??": 3902,
      "tusi": 3903,
      "Ġsekedar": 3904,
      "Ġtemb": 3905,
      "imu": 3906,
      "se": 3907,
      "Ġmenjalani": 3908,
      "etika": 3909,
      "Ġsegar": 3910,
      "ĠKedua": 3911,
      "Ġmanajemen": 3912,
      "nas": 3913,
      "Ġkeper": 3914,
      "wak": 3915,
      "omendasikan": 3916,
      "Ġterkadang": 3917,
      "Ġvirus": 3918,
      "jo": 3919,
      "Ġkinerja": 3920,
      "Ġdisediakan": 3921,
      "Ġtersendiri": 3922,
      "Ġfavorit": 3923,
      "ĠUl": 3924,
      "osting": 3925,
      "Ġsyarat": 3926,
      "urunan": 3927,
      "Ġistilah": 3928,
      "ĠOp": 3929,
      "Ġmar": 3930,
      "ĠBerd": 3931,
      "Ġcatatan": 3932,
      "Ġalternatif": 3933,
      "iksaan": 3934,
      "Ġkepentingan": 3935,
      "insip": 3936,
      "Ġumur": 3937,
      "irm": 3938,
      "Ġ21": 3939,
      "Ġkanan": 3940,
      "ĠSelanjutnya": 3941,
      "Ġaksi": 3942,
      "ĠNabi": 3943,
      "Ġkebiasaan": 3944,
      "Ġkawasan": 3945,
      "Ġgampang": 3946,
      "Ġdomino": 3947,
      "anggil": 3948,
      "Ġcek": 3949,
      "ater": 3950,
      "ĠBP": 3951,
      "Ġwisatawan": 3952,
      "bab": 3953,
      "Ġ40": 3954,
      "88": 3955,
      "okowi": 3956,
      "ner": 3957,
      "inkan": 3958,
      "alisis": 3959,
      "Ġsetidaknya": 3960,
      "Ġmenyadari": 3961,
      "Ġsaham": 3962,
      "Ġbakteri": 3963,
      "umpulkan": 3964,
      "anah": 3965,
      "Ġpuas": 3966,
      "Ġ[...]": 3967,
      "ĠAdapun": 3968,
      "ĠSebuah": 3969,
      "omi": 3970,
      "ĠMalang": 3971,
      "Ġhebat": 3972,
      "Ġdeh": 3973,
      "Ġoper": 3974,
      "agram": 3975,
      "Ġbaiknya": 3976,
      "onen": 3977,
      "Ġpastikan": 3978,
      "adilan": 3979,
      "ĠDesember": 3980,
      "ĠSay": 3981,
      "bah": 3982,
      "Ġsemacam": 3983,
      "onis": 3984,
      "ĠTel": 3985,
      "IM": 3986,
      "percayaan": 3987,
      "Ġsangatlah": 3988,
      "atinya": 3989,
      "otak": 3990,
      "US": 3991,
      "ET": 3992,
      "Ġindividu": 3993,
      "aring": 3994,
      "Ġdibangun": 3995,
      "Ġout": 3996,
      "ĠWakil": 3997,
      "Seb": 3998,
      "imat": 3999,
      "ingatkan": 4000,
      "umur": 4001,
      "PT": 4002,
      "Ap": 4003,
      "ĠHotel": 4004,
      "Ġserv": 4005,
      "Ġmembuktikan": 4006,
      "ral": 4007,
      "ero": 4008,
      "ĠPertama": 4009,
      "Ġsec": 4010,
      "Ġcender": 4011,
      "aing": 4012,
      "ĠSur": 4013,
      "ĠSMP": 4014,
      "ashi": 4015,
      "imbang": 4016,
      "ĠKesehatan": 4017,
      "Ġluka": 4018,
      "likasikan": 4019,
      "old": 4020,
      "oris": 4021,
      "oli": 4022,
      "Ġjawaban": 4023,
      "ly": 4024,
      "antangan": 4025,
      "apor": 4026,
      "Ġterletak": 4027,
      "ĠTentunya": 4028,
      "Ġjari": 4029,
      "2018": 4030,
      "are": 4031,
      "egis": 4032,
      "Ġaspek": 4033,
      "Ġmengajak": 4034,
      "Ġmenghabiskan": 4035,
      "ke": 4036,
      "ĠKorea": 4037,
      "Ġmis": 4038,
      "Ġcenderung": 4039,
      "lus": 4040,
      "Ġujarnya": 4041,
      "osis": 4042,
      "Ġengg": 4043,
      "Ġgen": 4044,
      "Ġmempr": 4045,
      "cak": 4046,
      "Ġmendorong": 4047,
      "Ġkode": 4048,
      "Ġasam": 4049,
      "Ġmembu": 4050,
      "Ġkunjungan": 4051,
      "Untuk": 4052,
      "rid": 4053,
      "Ġpembaca": 4054,
      "kata": 4055,
      "Ġmenyukai": 4056,
      "ĠSes": 4057,
      "Ġund": 4058,
      "Ġperbuatan": 4059,
      "Ġkeny": 4060,
      "Ġsampah": 4061,
      "Ġnon": 4062,
      "ahaman": 4063,
      "BM": 4064,
      "Ġpetugas": 4065,
      "Ġteh": 4066,
      "ahankan": 4067,
      "umat": 4068,
      "Ġdinding": 4069,
      "ĠAmb": 4070,
      "akaian": 4071,
      "ubang": 4072,
      "ĠPK": 4073,
      "Ġsungguh": 4074,
      "Ġdiet": 4075,
      "Ġalias": 4076,
      "oro": 4077,
      "ftware": 4078,
      "ID": 4079,
      "ĠBola": 4080,
      "Ġserangan": 4081,
      "ect": 4082,
      "eliti": 4083,
      "ujudkan": 4084,
      "Ġbuka": 4085,
      "spirasi": 4086,
      "ĠSal": 4087,
      "Ġkabar": 4088,
      "Ġtimbul": 4089,
      "ĠPP": 4090,
      "Ġpac": 4091,
      "sung": 4092,
      "ĠMent": 4093,
      "ĠPart": 4094,
      "ĠWIB": 4095,
      "Ġbekas": 4096,
      "UM": 4097,
      "ober": 4098,
      "hati": 4099,
      "Ġmaju": 4100,
      "Ġberbasis": 4101,
      "Ġsetempat": 4102,
      "yu": 4103,
      "Ġnaf": 4104,
      "Ġpap": 4105,
      "Ġgunung": 4106,
      "ampur": 4107,
      "ge": 4108,
      "Ġberkunjung": 4109,
      "ikirkan": 4110,
      "gen": 4111,
      "Ġperaturan": 4112,
      "Ġmelip": 4113,
      "Ġoff": 4114,
      "Ġzat": 4115,
      "elih": 4116,
      "ĠAplikasi": 4117,
      "Ġperalatan": 4118,
      "15": 4119,
      "Ġident": 4120,
      "Ġmengkonsumsi": 4121,
      "eku": 4122,
      "Ġmengobati": 4123,
      "Ġibadah": 4124,
      "ĠTar": 4125,
      "Ġmendaftar": 4126,
      "Ġlip": 4127,
      "alang": 4128,
      "una": 4129,
      "eien": 4130,
      "ress": 4131,
      "ĠSing": 4132,
      "Ġmengungkapkan": 4133,
      "Ġperdagangan": 4134,
      "osa": 4135,
      "Ġpajak": 4136,
      "Ġpengaruh": 4137,
      "net": 4138,
      "ĠTogel": 4139,
      "anto": 4140,
      "Ġasuransi": 4141,
      "Ġdasarnya": 4142,
      "Ġgatal": 4143,
      "etes": 4144,
      "ĠSun": 4145,
      "Ġmenguntungkan": 4146,
      "iknya": 4147,
      "ĠSebenarnya": 4148,
      "Ġklik": 4149,
      "Ġkematian": 4150,
      "Ġklas": 4151,
      "lind": 4152,
      "otong": 4153,
      "tober": 4154,
      "Ġsungai": 4155,
      "Ġsarana": 4156,
      "wajib": 4157,
      "ĠTempat": 4158,
      "udang": 4159,
      "Ġpekan": 4160,
      "Ġhangat": 4161,
      "uasai": 4162,
      "ĠJuli": 4163,
      "EM": 4164,
      "Ġkerusakan": 4165,
      "Ġmenyi": 4166,
      "etan": 4167,
      "Ġperistiwa": 4168,
      "Ġbuk": 4169,
      "Ġkabupaten": 4170,
      "Ġdibawa": 4171,
      "satunya": 4172,
      "Ġmenerapkan": 4173,
      "Ġlembut": 4174,
      "ĠBadan": 4175,
      "Ġmengec": 4176,
      "Ġpemilihan": 4177,
      "lem": 4178,
      "Ġsab": 4179,
      "Ġpenger": 4180,
      "enaran": 4181,
      "Ġpor": 4182,
      "ĠTV": 4183,
      "ĠBo": 4184,
      "evisi": 4185,
      "Ġex": 4186,
      "Ġbibir": 4187,
      "Ġbertanggung": 4188,
      "Ġpelaksanaan": 4189,
      "Ġpayudara": 4190,
      "cel": 4191,
      "Ġkotor": 4192,
      "ribusi": 4193,
      "ĠJokowi": 4194,
      "Ġaneh": 4195,
      "Ġsaudara": 4196,
      "ows": 4197,
      "Ġsektor": 4198,
      "Ġpenurunan": 4199,
      "Ġmemasuki": 4200,
      "asiat": 4201,
      "Ġdek": 4202,
      "Ġkenal": 4203,
      "ajuan": 4204,
      "jak": 4205,
      "ĠSelama": 4206,
      "edag": 4207,
      "anggih": 4208,
      "ĠAngg": 4209,
      "auan": 4210,
      "Ġtegas": 4211,
      "apus": 4212,
      "amaan": 4213,
      "Ġlevel": 4214,
      "Ġsaluran": 4215,
      "Ġlumayan": 4216,
      "Ġpal": 4217,
      "PA": 4218,
      "Ġsepertinya": 4219,
      "Ġemosi": 4220,
      "ĠBelanda": 4221,
      "ka": 4222,
      "Ġmenganggap": 4223,
      "ĠPerusahaan": 4224,
      "ĠMobil": 4225,
      "ompet": 4226,
      "Ġsengaja": 4227,
      "udut": 4228,
      "Ġsesungguhnya": 4229,
      "Ġpadahal": 4230,
      "Ġkecuali": 4231,
      "ular": 4232,
      "Ġ22": 4233,
      "ĠDKI": 4234,
      "Ġkari": 4235,
      "Ġsetengah": 4236,
      "Ġunsur": 4237,
      "Ġpil": 4238,
      "xy": 4239,
      "epan": 4240,
      "ĠðŁ": 4241,
      "ĠJalan": 4242,
      "Ġresiko": 4243,
      "Ġcap": 4244,
      "alanya": 4245,
      "arikan": 4246,
      "Ġth": 4247,
      "Ġkepercayaan": 4248,
      "lahan": 4249,
      "Ġbertujuan": 4250,
      "Ġkompl": 4251,
      "inter": 4252,
      "Ġberbentuk": 4253,
      "Ġtomb": 4254,
      "ĠPantai": 4255,
      "Ġciri": 4256,
      "Ġmengganggu": 4257,
      "Ġsol": 4258,
      "intah": 4259,
      "Ġmenyus": 4260,
      "Ġrekan": 4261,
      "Ġpsik": 4262,
      "ĠMaret": 4263,
      "portasi": 4264,
      "ĠKons": 4265,
      "ĠDPRD": 4266,
      "Ġmantan": 4267,
      "go": 4268,
      "pro": 4269,
      "Ber": 4270,
      "embuhkan": 4271,
      "Ġnegatif": 4272,
      "artemen": 4273,
      "set": 4274,
      "Ġdo": 4275,
      "Ġujung": 4276,
      "ĠInformasi": 4277,
      "Ġbangun": 4278,
      "Ġjerawat": 4279,
      "ĠPiala": 4280,
      "tinggi": 4281,
      "umpang": 4282,
      "Ġsepenuh": 4283,
      "eritakan": 4284,
      "ĠJuni": 4285,
      "ĠMei": 4286,
      "Ġberkom": 4287,
      "ĠFr": 4288,
      "Ġmengakibatkan": 4289,
      "Ġpemandangan": 4290,
      "Ġpemuda": 4291,
      "hargaan": 4292,
      "Selengkapnya": 4293,
      "EL": 4294,
      "Ġtaman": 4295,
      "pe": 4296,
      "ĠKali": 4297,
      "juangan": 4298,
      "anji": 4299,
      "lash": 4300,
      "Ġ2012": 4301,
      "ingkali": 4302,
      "Ġbulu": 4303,
      "Ġmenginginkan": 4304,
      "sip": 4305,
      "Ġterang": 4306,
      "Ġdist": 4307,
      "za": 4308,
      "Ġkompetisi": 4309,
      "Ġdiinginkan": 4310,
      "utip": 4311,
      "Ġpelatihan": 4312,
      "ĠSumat": 4313,
      "awal": 4314,
      "ĠEm": 4315,
      "obi": 4316,
      "ĠPenyakit": 4317,
      "ĠSerikat": 4318,
      "?âĢĿ": 4319,
      "ancang": 4320,
      "Ġdidapatkan": 4321,
      "Ġalamat": 4322,
      "antara": 4323,
      "ĠPes": 4324,
      "Ġmengadakan": 4325,
      "Ġdibuka": 4326,
      "Ġdel": 4327,
      "Ġelektr": 4328,
      "ĠLe": 4329,
      "olaan": 4330,
      "Ġkiri": 4331,
      "elan": 4332,
      "Ġbud": 4333,
      "200": 4334,
      "lihat": 4335,
      "Ġminta": 4336,
      "ĠNomor": 4337,
      "ayaan": 4338,
      "truksi": 4339,
      "kuat": 4340,
      "Ġdiantara": 4341,
      "Ġmengej": 4342,
      "Ġdiperk": 4343,
      "Ġmenghubungi": 4344,
      "ĠFacebook": 4345,
      "umkan": 4346,
      "Ġkontak": 4347,
      "Ġmens": 4348,
      "jikan": 4349,
      "Ġgula": 4350,
      "KM": 4351,
      "ĠAngk": 4352,
      "Ġkain": 4353,
      "ebak": 4354,
      "dusen": 4355,
      "ĠMulai": 4356,
      "Ġstatus": 4357,
      "Ġkasino": 4358,
      "IS": 4359,
      "iarkan": 4360,
      "Ġkomentar": 4361,
      "OR": 4362,
      "Ġrat": 4363,
      "Ġditambah": 4364,
      "Ġsebaliknya": 4365,
      "arif": 4366,
      "Ġrestoran": 4367,
      "Ġdapur": 4368,
      "Ġlancar": 4369,
      "Ġgaransi": 4370,
      "ĠLi": 4371,
      "Ġmenyerang": 4372,
      "Ġur": 4373,
      "ĠPers": 4374,
      "irakan": 4375,
      "ĠNg": 4376,
      "Ġmenekan": 4377,
      "alih": 4378,
      "Ġpemula": 4379,
      "Ġsip": 4380,
      "Per": 4381,
      "edagang": 4382,
      "ambang": 4383,
      "Ġmemperk": 4384,
      "obet": 4385,
      "emahan": 4386,
      "osisi": 4387,
      "Ġrangka": 4388,
      "Ġwasir": 4389,
      "Ġpengiriman": 4390,
      "Ġfl": 4391,
      "ejak": 4392,
      "Ġmembagi": 4393,
      "ĠAgar": 4394,
      "ashion": 4395,
      "ĠInf": 4396,
      "Ġkuc": 4397,
      "ĠMet": 4398,
      "Ġmelindungi": 4399,
      "Ġcanggih": 4400,
      "terior": 4401,
      "Ġgedung": 4402,
      "Ġdiab": 4403,
      "Ġharinya": 4404,
      "ach": 4405,
      "ubung": 4406,
      "ĠUnit": 4407,
      "Ġkomponen": 4408,
      "Ġ23": 4409,
      "Ġkonv": 4410,
      "Ġlampu": 4411,
      "Ġkampus": 4412,
      "lobal": 4413,
      "Ġmenonton": 4414,
      "Ġtelepon": 4415,
      "illah": 4416,
      "uaran": 4417,
      "indak": 4418,
      "ading": 4419,
      "UN": 4420,
      "utrisi": 4421,
      "jab": 4422,
      "Ġheran": 4423,
      "ĠEx": 4424,
      "ehe": 4425,
      "olis": 4426,
      "Ġmembersihkan": 4427,
      "Ġdibanding": 4428,
      "ora": 4429,
      "\",": 4430,
      "Ġtemukan": 4431,
      "Ġkue": 4432,
      "Ġdetik": 4433,
      "Ġenam": 4434,
      "estinasi": 4435,
      "ood": 4436,
      "indows": 4437,
      "Ġplas": 4438,
      "Ġperilaku": 4439,
      "Ġberangkat": 4440,
      "bola": 4441,
      "Ġfakta": 4442,
      "olahan": 4443,
      "Ġmengal": 4444,
      "ĠBay": 4445,
      "Ġkontrak": 4446,
      "Ġkimia": 4447,
      "Ġdisebutkan": 4448,
      "Ġbahagia": 4449,
      "ariwisata": 4450,
      "Ġmimpi": 4451,
      "ĠData": 4452,
      "Ġparah": 4453,
      "Ġbeserta": 4454,
      "uruhan": 4455,
      "ingatan": 4456,
      "upsi": 4457,
      "ĠPan": 4458,
      "udaya": 4459,
      "operasi": 4460,
      "Ġmemperbaiki": 4461,
      "Ġdiikuti": 4462,
      "Ġsens": 4463,
      "Ġpetani": 4464,
      "ĠJasa": 4465,
      "Ġtuk": 4466,
      "Ġpraktis": 4467,
      "Ġcust": 4468,
      "Ġditetapkan": 4469,
      "ĠAkhirnya": 4470,
      "ultas": 4471,
      "Ġvag": 4472,
      "tore": 4473,
      "Ġpabrik": 4474,
      "ĠOktober": 4475,
      "ĠPermainan": 4476,
      "Ġmengus": 4477,
      "unggulan": 4478,
      "ribut": 4479,
      "Ġcaranya": 4480,
      "II": 4481,
      "Ġkertas": 4482,
      "ream": 4483,
      "ancis": 4484,
      "Ġurusan": 4485,
      "ĠMari": 4486,
      "Ġera": 4487,
      "ĠDik": 4488,
      "Ġlapak": 4489,
      "Ġsign": 4490,
      "egawai": 4491,
      "app": 4492,
      "qu": 4493,
      "Ġpermukaan": 4494,
      "Ġditulis": 4495,
      "ihatan": 4496,
      "tung": 4497,
      "ajah": 4498,
      "ĠMenteri": 4499,
      "ĠBandar": 4500,
      "Ġkolam": 4501,
      "Ġpandangan": 4502,
      "Ġpendukung": 4503,
      "inf": 4504,
      "emui": 4505,
      "ĠJanuari": 4506,
      "Ġvitamin": 4507,
      "bak": 4508,
      "Ġkreatif": 4509,
      "Ġpemas": 4510,
      "ĠIns": 4511,
      "ilu": 4512,
      "Ġhalus": 4513,
      "enterian": 4514,
      "ĠRep": 4515,
      "Ġpasaran": 4516,
      "zin": 4517,
      "itor": 4518,
      "Ġbertar": 4519,
      "acara": 4520,
      "ĠJam": 4521,
      "Ġco": 4522,
      "Ġsekitarnya": 4523,
      "Ġpromosi": 4524,
      "ĠMah": 4525,
      "ogor": 4526,
      "Ġbawa": 4527,
      "ĠMuhammad": 4528,
      "intar": 4529,
      "Ġlepas": 4530,
      "Ġdibagi": 4531,
      "ĠHonda": 4532,
      "Ġrekening": 4533,
      "Ġdoa": 4534,
      "otan": 4535,
      "Ġkenyamanan": 4536,
      "Ġketerangan": 4537,
      "akkan": 4538,
      "Ġmon": 4539,
      "ĠDaftar": 4540,
      "ĠBerdasarkan": 4541,
      "enanya": 4542,
      "Ġpengusaha": 4543,
      "ĠBek": 4544,
      "Ġsis": 4545,
      "onik": 4546,
      "Ġperd": 4547,
      "Ġmaksud": 4548,
      "Ġbeda": 4549,
      "Ġskor": 4550,
      "ĠMi": 4551,
      "ĠSebagian": 4552,
      "tt": 4553,
      "Ġpolisi": 4554,
      "Ġpuncak": 4555,
      "ite": 4556,
      "ĠGunung": 4557,
      "unga": 4558,
      "Ġgrup": 4559,
      "Ġpermintaan": 4560,
      "waktu": 4561,
      "Ġminimalis": 4562,
      "Ġ*": 4563,
      "yal": 4564,
      "anggup": 4565,
      "Ġlebar": 4566,
      "Ġpemeriksaan": 4567,
      "epak": 4568,
      "Ġkeren": 4569,
      "Ġpenyedia": 4570,
      "Ġberlebihan": 4571,
      "Ġsib": 4572,
      "ucu": 4573,
      "odoh": 4574,
      "amar": 4575,
      "Ġsudut": 4576,
      "Ġdisampaikan": 4577,
      "ĠKab": 4578,
      "Ġni": 4579,
      "Ġterlibat": 4580,
      "ĠWanita": 4581,
      "Ġseputar": 4582,
      "gunaan": 4583,
      "ĠPria": 4584,
      "Ġpinj": 4585,
      "16": 4586,
      "angit": 4587,
      "Ġmenolak": 4588,
      "atangan": 4589,
      "ĠNovember": 4590,
      "tember": 4591,
      "audi": 4592,
      "Ġketidak": 4593,
      "ado": 4594,
      "Ġpingg": 4595,
      "sed": 4596,
      "Ġmempelajari": 4597,
      "ps": 4598,
      "land": 4599,
      "Ġobjek": 4600,
      "Ġperang": 4601,
      "kadang": 4602,
      "Ġmenderita": 4603,
      "Al": 4604,
      "Ġpeduli": 4605,
      "Ġkerap": 4606,
      "entuh": 4607,
      "Ġdiperhatikan": 4608,
      "Ġmenyiapkan": 4609,
      "Ġdipercaya": 4610,
      "Ġtransportasi": 4611,
      "Ġtanya": 4612,
      "ĠInst": 4613,
      "Ġefisi": 4614,
      "Ġblogger": 4615,
      "Ġtern": 4616,
      "Ġpedagang": 4617,
      "uaskan": 4618,
      "amilan": 4619,
      "apatkan": 4620,
      "Di": 4621,
      "use": 4622,
      "Ġtuan": 4623,
      "Ġpemenang": 4624,
      "alin": 4625,
      "13": 4626,
      "Ġperjudian": 4627,
      "Ġmenak": 4628,
      "ĠAC": 4629,
      "bobet": 4630,
      "Ġpenerbangan": 4631,
      "Ġsosok": 4632,
      "oalan": 4633,
      "Ġpenghasilan": 4634,
      "ĠMuslim": 4635,
      ",,": 4636,
      "Ġprestasi": 4637,
      "itmen": 4638,
      "ahanan": 4639,
      "ĠPap": 4640,
      "ĠBapak": 4641,
      "ĠSebelumnya": 4642,
      "angkaian": 4643,
      "Ġmasjid": 4644,
      "Ġkepem": 4645,
      "ĠSekolah": 4646,
      "Ġdidukung": 4647,
      "irian": 4648,
      "Ġhany": 4649,
      "ĠJerman": 4650,
      "Ġkaos": 4651,
      "adem": 4652,
      "ĠWeb": 4653,
      "word": 4654,
      "Ġtombol": 4655,
      "ĠWalaupun": 4656,
      "Ġdokumen": 4657,
      "uruf": 4658,
      "Ġ08": 4659,
      "SM": 4660,
      "embatan": 4661,
      "ĠSamsung": 4662,
      "Ġpemahaman": 4663,
      "Ġtantangan": 4664,
      "Ġdestinasi": 4665,
      "atuan": 4666,
      "Ġpelatih": 4667,
      "Ġpaham": 4668,
      "Ġbicara": 4669,
      "irahat": 4670,
      "lindungan": 4671,
      "de": 4672,
      "ĠTujuan": 4673,
      "entikan": 4674,
      "ahasan": 4675,
      "25": 4676,
      "isahkan": 4677,
      "Ġmenilai": 4678,
      "ĠMedan": 4679,
      "Ġotot": 4680,
      "Ġpostingan": 4681,
      "Ġgar": 4682,
      "umpulan": 4683,
      "Ġkemudahan": 4684,
      "timewa": 4685,
      "Ġtermurah": 4686,
      "UR": 4687,
      "ĠTernyata": 4688,
      "uy": 4689,
      "Ġhidupnya": 4690,
      "awas": 4691,
      "Ġshar": 4692,
      "engalaman": 4693,
      "ĠApril": 4694,
      "ĠSeorang": 4695,
      "Ġbeban": 4696,
      "vasi": 4697,
      "Ġangin": 4698,
      "Ġmemakan": 4699,
      "Ġcel": 4700,
      "Ġdides": 4701,
      "umbu": 4702,
      "ahter": 4703,
      "ĠProf": 4704,
      "Ġpembeli": 4705,
      "PB": 4706,
      "Ġmedis": 4707,
      "Ġsepenuhnya": 4708,
      "Ġditentukan": 4709,
      "ontrol": 4710,
      "ling": 4711,
      "ĠCity": 4712,
      "of": 4713,
      "Ġkeseluruhan": 4714,
      "ish": 4715,
      "ĠSemarang": 4716,
      "ĠRasulullah": 4717,
      "Ġreal": 4718,
      "ĠSampai": 4719,
      "ikmat": 4720,
      "Ġkeindahan": 4721,
      "Ġmemasang": 4722,
      "Ġnet": 4723,
      "pr": 4724,
      "ejabat": 4725,
      "ĠEd": 4726,
      "ĠPusat": 4727,
      "ome": 4728,
      "ĠSistem": 4729,
      "Ġkira": 4730,
      "Ġmelah": 4731,
      "Ġkeberadaan": 4732,
      "Ġpencarian": 4733,
      "TM": 4734,
      "ĠSejak": 4735,
      "tual": 4736,
      "ĠLap": 4737,
      "ografi": 4738,
      "Ġ@": 4739,
      "reen": 4740,
      "irman": 4741,
      "Dalam": 4742,
      "oda": 4743,
      "Ġbakar": 4744,
      "Ġrelatif": 4745,
      "Ġampuh": 4746,
      "uw": 4747,
      "Ġketingg": 4748,
      "Ġtertinggi": 4749,
      "ĠWah": 4750,
      "ĠSumatera": 4751,
      "anye": 4752,
      "olat": 4753,
      "Ġtransfer": 4754,
      "ĠNama": 4755,
      "la": 4756,
      "obot": 4757,
      "Ġmeliputi": 4758,
      "Ġaliran": 4759,
      "Ġ=": 4760,
      "pert": 4761,
      "Ġdisel": 4762,
      "Ġmewah": 4763,
      "Ġsibuk": 4764,
      "ĠStr": 4765,
      "Ġmemesan": 4766,
      "ne": 4767,
      "Ġreferensi": 4768,
      "Ġplat": 4769,
      "Ġ60": 4770,
      "yaratan": 4771,
      "Ġcahaya": 4772,
      "Ġbetul": 4773,
      "Ġmay": 4774,
      "Ġkucing": 4775,
      "ĠKan": 4776,
      "hasilan": 4777,
      "ibu": 4778,
      "Ġkebenaran": 4779,
      "Ġpenasaran": 4780,
      "Ġsoftware": 4781,
      "Ġraja": 4782,
      "uhu": 4783,
      "endara": 4784,
      "Ġlemah": 4785,
      "Ġbaterai": 4786,
      "enuhi": 4787,
      "Ġbesi": 4788,
      "jian": 4789,
      "Ġberpengaruh": 4790,
      "Ġgelar": 4791,
      "Ġpertimb": 4792,
      "Ġperform": 4793,
      "ĠMahasiswa": 4794,
      "Ġsore": 4795,
      "mm": 4796,
      "uhkan": 4797,
      "Ġpendapatan": 4798,
      "Ġmaaf": 4799,
      "tahun": 4800,
      "Ġkalimat": 4801,
      "Ġtata": 4802,
      "engarkan": 4803,
      "ĠUU": 4804,
      "Ġturut": 4805,
      "luan": 4806,
      "Ġmengakses": 4807,
      "Ġujian": 4808,
      "Ġforex": 4809,
      "lain": 4810,
      "Ġtulang": 4811,
      "ĠArab": 4812,
      "Ġkeg": 4813,
      "Ġmelibatkan": 4814,
      "yangkan": 4815,
      "ugian": 4816,
      "ĠChina": 4817,
      "ng": 4818,
      "Ġsuku": 4819,
      "uncurkan": 4820,
      "Ġmakna": 4821,
      "ĠSeptember": 4822,
      "ĠNus": 4823,
      "Ġmengangkat": 4824,
      "18": 4825,
      "Ġserupa": 4826,
      "Ġsir": 4827,
      "Ġhanyalah": 4828,
      "ron": 4829,
      "lak": 4830,
      "okter": 4831,
      "ĠTanpa": 4832,
      "ith": 4833,
      "ĠKas": 4834,
      "Ġpenghargaan": 4835,
      "Ġcasino": 4836,
      "Ġjaman": 4837,
      "Ġpenyel": 4838,
      "icu": 4839,
      "Ġdipastikan": 4840,
      "ĠCar": 4841,
      "inga": 4842,
      "Ġmemuaskan": 4843,
      "els": 4844,
      "pen": 4845,
      "apura": 4846,
      "Ġdijalan": 4847,
      "afe": 4848,
      "Set": 4849,
      "ahl": 4850,
      "Ġkesan": 4851,
      "Ġajang": 4852,
      "Ġramai": 4853,
      "Ġsanggup": 4854,
      "Ġmendek": 4855,
      "Aku": 4856,
      "Ġpangg": 4857,
      "orial": 4858,
      "ĠCo": 4859,
      "Ġ27": 4860,
      "Ġit": 4861,
      "Ġtep": 4862,
      "ologis": 4863,
      "Ġdosa": 4864,
      "Ġditerapkan": 4865,
      "Ġpotongan": 4866,
      "Ġhorm": 4867,
      "//": 4868,
      "Ġdimanfaatkan": 4869,
      "enalkan": 4870,
      "Ġcerd": 4871,
      "ucapkan": 4872,
      "ĠBatu": 4873,
      "bit": 4874,
      "Ġbeliau": 4875,
      "Ġdisana": 4876,
      "siapan": 4877,
      "hluk": 4878,
      "Jika": 4879,
      "ĠÂ": 4880,
      "efin": 4881,
      "Ġcok": 4882,
      "Ġmempersiapkan": 4883,
      "ĠMic": 4884,
      "ĠKomp": 4885,
      "Ġkeperluan": 4886,
      "AD": 4887,
      "Ġdihasilkan": 4888,
      "alia": 4889,
      "Ġpihaknya": 4890,
      "ayang": 4891,
      "ĠBlog": 4892,
      "Men": 4893,
      "ĠYah": 4894,
      "ektor": 4895,
      "ĠPartai": 4896,
      "Ġbot": 4897,
      "rol": 4898,
      "Ġstruk": 4899,
      "jen": 4900,
      "pertimb": 4901,
      "ĠBarang": 4902,
      "Ġperingkat": 4903,
      "Ġwajar": 4904,
      "Ġmempertahankan": 4905,
      "Ġ:)": 4906,
      "elly": 4907,
      "Ġpulsa": 4908,
      "upan": 4909,
      "ĠCl": 4910,
      "Ġjabatan": 4911,
      "ĠPC": 4912,
      "Ġki": 4913,
      "Ġbuatan": 4914,
      "ĠTa": 4915,
      "ĠSk": 4916,
      "jah": 4917,
      "vari": 4918,
      "45": 4919,
      "Ġ28": 4920,
      "stem": 4921,
      "Ġengk": 4922,
      "Ġdar": 4923,
      "Ġseru": 4924,
      "ĠKegiatan": 4925,
      "Ġkomb": 4926,
      "Ġdikembangkan": 4927,
      "ĠBogor": 4928,
      "Ġlulus": 4929,
      "Ġkil": 4930,
      "Ġberas": 4931,
      "Ġmengerjakan": 4932,
      "jawab": 4933,
      "Ġir": 4934,
      "ĠInilah": 4935,
      "Ġseringkali": 4936,
      "enom": 4937,
      "Ġbiar": 4938,
      "Ġtengg": 4939,
      "Ġkm": 4940,
      "ear": 4941,
      "Ġpuasa": 4942,
      "tic": 4943,
      "atau": 4944,
      "TP": 4945,
      "ĠPil": 4946,
      "Ġmenahan": 4947,
      "ĠKerja": 4948,
      "ĠMadrid": 4949,
      "Ġdikonsumsi": 4950,
      "utasi": 4951,
      "hamdul": 4952,
      "din": 4953,
      "Ġmerusak": 4954,
      "Ġlho": 4955,
      "Ġmelahirkan": 4956,
      "kota": 4957,
      "anch": 4958,
      "awi": 4959,
      "Ġberak": 4960,
      "ujuh": 4961,
      "Ġcairan": 4962,
      "Ġpenip": 4963,
      "Ġkuliner": 4964,
      "Ġkebaikan": 4965,
      "Ġprinsip": 4966,
      "Ġseolah": 4967,
      "owongan": 4968,
      "Ġmaterial": 4969,
      "Ġtun": 4970,
      "Ġnutrisi": 4971,
      "Ġdikel": 4972,
      "oreng": 4973,
      "ĠBaik": 4974,
      "Ġtepatnya": 4975,
      "60": 4976,
      "ance": 4977,
      "Ġialah": 4978,
      "ĠJuga": 4979,
      "Ġmemproduksi": 4980,
      "Ġkotak": 4981,
      "Ġback": 4982,
      "etulan": 4983,
      "aporkan": 4984,
      "ogja": 4985,
      "Ġberbuat": 4986,
      "ĠProses": 4987,
      "Ġmembel": 4988,
      "angkal": 4989,
      "ĠBuat": 4990,
      "PI": 4991,
      "pertimbangkan": 4992,
      ",-": 4993,
      "Ġgraf": 4994,
      "asannya": 4995,
      "Ġsat": 4996,
      "Ġketentuan": 4997,
      "Ġpenyimp": 4998,
      "ambarkan": 4999,
      "Ġbed": 5000,
      "Ġmental": 5001,
      "ĠMasih": 5002,
      "ikul": 5003,
      "Ġtrik": 5004,
      "Ġtelevisi": 5005,
      "Ġmencetak": 5006,
      "itia": 5007,
      "Ġmelepas": 5008,
      "ĠiP": 5009,
      "anyi": 5010,
      "Ġteratur": 5011,
      "ĠRaja": 5012,
      "Ġratusan": 5013,
      "Ġhuruf": 5014,
      "ĠJenis": 5015,
      "irinya": 5016,
      "Ġmi": 5017,
      "idana": 5018,
      "Ġdimin": 5019,
      "Ġprodusen": 5020,
      "Ġrahasia": 5021,
      "awar": 5022,
      "ĠSeg": 5023,
      "Ġdibilang": 5024,
      "otik": 5025,
      "ajat": 5026,
      "Ġkirim": 5027,
      "Ġpinjaman": 5028,
      "wakilan": 5029,
      "ĠKur": 5030,
      "ĠDom": 5031,
      "17": 5032,
      "Ġed": 5033,
      "Ġdimas": 5034,
      "ekali": 5035,
      "ĠRusia": 5036,
      "irmasi": 5037,
      "Ġentah": 5038,
      "ĠKata": 5039,
      "amatkan": 5040,
      "Ġpertanian": 5041,
      "ĠKomisi": 5042,
      "atanya": 5043,
      "Ġ2010": 5044,
      "urasi": 5045,
      "ajin": 5046,
      "Ġstab": 5047,
      "ifikan": 5048,
      "Ġkekalahan": 5049,
      "Ġsekian": 5050,
      "alikan": 5051,
      "OL": 5052,
      "utaan": 5053,
      "be": 5054,
      "aluasi": 5055,
      "emas": 5056,
      "Ġengkau": 5057,
      "Ġris": 5058,
      "omendasi": 5059,
      "Ġsant": 5060,
      "Ġpip": 5061,
      "ĠMinggu": 5062,
      "Ġta": 5063,
      "iss": 5064,
      "ĠPar": 5065,
      "Ġpemasaran": 5066,
      "kes": 5067,
      "Ġgoogle": 5068,
      "Ġteori": 5069,
      "jur": 5070,
      "embuny": 5071,
      "Ġpembahasan": 5072,
      "Ġpenggemar": 5073,
      "anam": 5074,
      "Ġeksp": 5075,
      "eum": 5076,
      "Ġlun": 5077,
      "anyol": 5078,
      "Ġdosen": 5079,
      "Ġpuluhan": 5080,
      "Ġanim": 5081,
      "izi": 5082,
      "Ġperintah": 5083,
      "umpul": 5084,
      "Ini": 5085,
      "Ġbabak": 5086,
      "Ġ2011": 5087,
      "Ġmemperc": 5088,
      "Ġstruktur": 5089,
      "UL": 5090,
      "Ġmenguasai": 5091,
      "Ġmemin": 5092,
      "Ġrapat": 5093,
      "Ġkehad": 5094,
      "ĠKamis": 5095,
      "oper": 5096,
      "Ġmengingatkan": 5097,
      "ubur": 5098,
      "Ġmuka": 5099,
      "ĠDit": 5100,
      "Ġpersoalan": 5101,
      "PR": 5102,
      "Ġakr": 5103,
      "99": 5104,
      "Ġtutup": 5105,
      "ĠTrans": 5106,
      "Ġsewa": 5107,
      "ĠKementerian": 5108,
      "ĠMasyarakat": 5109,
      "aa": 5110,
      "Ġkeunggulan": 5111,
      "otensi": 5112,
      "Ġprovinsi": 5113,
      "Ġben": 5114,
      "ĠKol": 5115,
      "Ġpengelolaan": 5116,
      "ĠÐ": 5117,
      "Ġcm": 5118,
      "Ġsignifikan": 5119,
      "Ġprediksi": 5120,
      "Ġserver": 5121,
      "Ġgelap": 5122,
      "Ġseber": 5123,
      "ĠReal": 5124,
      "Ġberperan": 5125,
      "Ġkrim": 5126,
      "Ġsembuh": 5127,
      "arm": 5128,
      "Ġlar": 5129,
      "Ġribuan": 5130,
      "://": 5131,
      "ĠGam": 5132,
      "Ġpresiden": 5133,
      "ĠTerbaik": 5134,
      "Ġhp": 5135,
      "ĠTerima": 5136,
      "Ġmu": 5137,
      "Ġizin": 5138,
      "ĠAy": 5139,
      "Ġcustomer": 5140,
      "ĠPasalnya": 5141,
      "Ġpecinta": 5142,
      "Ġmenempatkan": 5143,
      "Ġwakil": 5144,
      "Ġbarat": 5145,
      "Ġlomba": 5146,
      "Ġpasang": 5147,
      "orl": 5148,
      "Ġ198": 5149,
      "Ġtidaklah": 5150,
      "Ġpenumpang": 5151,
      "unggal": 5152,
      "put": 5153,
      "Ġpi": 5154,
      "ĠKris": 5155,
      "ĠWaktu": 5156,
      "engkapan": 5157,
      "Ġpemberian": 5158,
      "ree": 5159,
      "Ġmerawat": 5160,
      "Ġkerugian": 5161,
      "adai": 5162,
      "ĠPur": 5163,
      "Ġpokok": 5164,
      "Ġpasir": 5165,
      "ĠRak": 5166,
      "ĠTerbaru": 5167,
      "Ġpanduan": 5168,
      "Ġplastik": 5169,
      "ĠRo": 5170,
      "lien": 5171,
      "Ġperbaikan": 5172,
      "Ġmengab": 5173,
      "ĠBet": 5174,
      "Ġmengakui": 5175,
      "dr": 5176,
      "yan": 5177,
      "sb": 5178,
      "Ġcerdas": 5179,
      "14": 5180,
      "Ġperoleh": 5181,
      "Ġmurid": 5182,
      "ĠBisnis": 5183,
      "Ġperlindungan": 5184,
      "Ġperjuangan": 5185,
      "isinya": 5186,
      "mar": 5187,
      "kom": 5188,
      "ĠHy": 5189,
      "akuan": 5190,
      "Ġperhatikan": 5191,
      "Ġinternal": 5192,
      "ĠSenin": 5193,
      "Ġsamb": 5194,
      "entuhan": 5195,
      "Sem": 5196,
      "ÙĦ": 5197,
      "Ġkonsult": 5198,
      "Ġcamp": 5199,
      "Ġpus": 5200,
      "Ġkecantikan": 5201,
      "GB": 5202,
      "Ġsaran": 5203,
      "Ġmarah": 5204,
      "Ġdialami": 5205,
      "ĠSelamat": 5206,
      "%.": 5207,
      "ran": 5208,
      "Ġdigelar": 5209,
      "ĠUN": 5210,
      "Ġmengumpulkan": 5211,
      "Ġberkel": 5212,
      "Ġplay": 5213,
      "Ġlo": 5214,
      "Ġkosong": 5215,
      "ikal": 5216,
      "ĠBal": 5217,
      "eluarga": 5218,
      "untung": 5219,
      "ĠRed": 5220,
      "ĠBuk": 5221,
      "Ġradi": 5222,
      "Ġaktifitas": 5223,
      "Ġbettor": 5224,
      "Ġketat": 5225,
      "Ġkewajib": 5226,
      "jaya": 5227,
      "Ùİ": 5228,
      "Ġmakhluk": 5229,
      "Ġteg": 5230,
      "truktur": 5231,
      "ĠPh": 5232,
      "ĠJumat": 5233,
      "Ġenggak": 5234,
      "ader": 5235,
      "Ġkombinasi": 5236,
      "embalikan": 5237,
      "Ġstaf": 5238,
      "Ġmemikirkan": 5239,
      "ĠGame": 5240,
      "Ġpersyaratan": 5241,
      "Ġslot": 5242,
      "Ġakurat": 5243,
      "ium": 5244,
      "akaran": 5245,
      "ĠRabu": 5246,
      "Ġdiadakan": 5247,
      "ĠIlmu": 5248,
      "Ġpernyataan": 5249,
      "ĠSang": 5250,
      "Ġtut": 5251,
      "Ġgas": 5252,
      "Ġmemat": 5253,
      "ĠKini": 5254,
      "Ġhemat": 5255,
      "trak": 5256,
      "Ġsekalipun": 5257,
      "ĠMengapa": 5258,
      "ebruari": 5259,
      "ĠPerlu": 5260,
      "Ġpemikiran": 5261,
      "enyum": 5262,
      "witter": 5263,
      "amen": 5264,
      "Ġbutuhkan": 5265,
      "bel": 5266,
      "irah": 5267,
      "ote": 5268,
      "Ġet": 5269,
      "Pada": 5270,
      "Ġvia": 5271,
      "Ġkaca": 5272,
      "Ġpengan": 5273,
      "erjakan": 5274,
      "Ġcita": 5275,
      "ĠID": 5276,
      "ĠTerpercaya": 5277,
      "egaskan": 5278,
      "Ġsuam": 5279,
      "aplikasikan": 5280,
      "iliun": 5281,
      "Ġmisi": 5282,
      "Ġpejabat": 5283,
      "ĠAustr": 5284,
      "ĠMend": 5285,
      "Ġkelah": 5286,
      "Ġbayar": 5287,
      "ĠDua": 5288,
      "Ġcabang": 5289,
      "utuh": 5290,
      "Ġdikeluarkan": 5291,
      "imakasih": 5292,
      "Ġbrand": 5293,
      "ampi": 5294,
      "Ġtubuhnya": 5295,
      "Ġupdate": 5296,
      "Ġraya": 5297,
      "Ġgaji": 5298,
      "aju": 5299,
      "Ġabad": 5300,
      "ony": 5301,
      "Ġinves": 5302,
      "Ġtujuh": 5303,
      "aktunya": 5304,
      "uaca": 5305,
      "ĠAri": 5306,
      "Ġgitu": 5307,
      "Ġulama": 5308,
      "Ġpark": 5309,
      "Ġjag": 5310,
      "idat": 5311,
      "laim": 5312,
      "Ġsebut": 5313,
      "Ġglobal": 5314,
      "Ġharta": 5315,
      "ĠPasal": 5316,
      "Ġperkara": 5317,
      "Ġtravel": 5318,
      "ajikan": 5319,
      "âĢĶ": 5320,
      "Ġpintar": 5321,
      "amai": 5322,
      "Ġtipis": 5323,
      "ĠUp": 5324,
      "ĠIk": 5325,
      "ĠKenapa": 5326,
      "ED": 5327,
      "wanya": 5328,
      "ĠBekasi": 5329,
      "iaomi": 5330,
      "Ġtur": 5331,
      "Ġkemajuan": 5332,
      "po": 5333,
      "Ġmasakan": 5334,
      "Ġpentingnya": 5335,
      "Ġkehamilan": 5336,
      "Ġmencintai": 5337,
      "Ġpegawai": 5338,
      "ĠPS": 5339,
      "Ġmenyembuhkan": 5340,
      "ukah": 5341,
      "ĠDe": 5342,
      "Ġterjun": 5343,
      "arkoba": 5344,
      "Ġberpengalaman": 5345,
      "Ġmengelola": 5346,
      "Ġdiaj": 5347,
      "illa": 5348,
      "Ġtunggu": 5349,
      "Ġhiburan": 5350,
      "ĠØ": 5351,
      "iro": 5352,
      "ĠSangat": 5353,
      "wang": 5354,
      "Ġlubang": 5355,
      "ĠKPU": 5356,
      "eam": 5357,
      "Ġdisert": 5358,
      "Ġpersiapan": 5359,
      "ĠSub": 5360,
      "Ġmerk": 5361,
      "Ġstasiun": 5362,
      "ĠSeri": 5363,
      "hitungan": 5364,
      "Ġdiabetes": 5365,
      "onor": 5366,
      "ech": 5367,
      "ĠSiapa": 5368,
      "ributor": 5369,
      "Ġmenceritakan": 5370,
      "Ġmengirimkan": 5371,
      "ĠKa": 5372,
      "Ġgamb": 5373,
      "ulusan": 5374,
      "ĠApp": 5375,
      "agn": 5376,
      "bum": 5377,
      "Ġpetunjuk": 5378,
      "Ġpesta": 5379,
      "ĠPo": 5380,
      "elis": 5381,
      "Ġpam": 5382,
      "Ġidentitas": 5383,
      "Ġbencana": 5384,
      "Ġbiru": 5385,
      "Ġkalinya": 5386,
      "Ġberharga": 5387,
      "hamdulillah": 5388,
      "Ġbersaing": 5389,
      "ĠSw": 5390,
      "MI": 5391,
      "ĠJu": 5392,
      "enger": 5393,
      "Ġha": 5394,
      "mana": 5395,
      "olar": 5396,
      "Ġ2019": 5397,
      "ĠTeknik": 5398,
      "Ġkunjungi": 5399,
      "Ġcac": 5400,
      "ĠWisata": 5401,
      "ï¿": 5402,
      "Ġsenj": 5403,
      "ĠMul": 5404,
      "ĠBangun": 5405,
      "Ġmembunuh": 5406,
      "Ġsisa": 5407,
      "Ġniat": 5408,
      "wasta": 5409,
      "ataan": 5410,
      "anjian": 5411,
      "ĠLem": 5412,
      "ĠDimana": 5413,
      "Ġkarna": 5414,
      "uasan": 5415,
      "ras": 5416,
      "Ġsimak": 5417,
      "ombang": 5418,
      "umumkan": 5419,
      "Ġterbentuk": 5420,
      "adaran": 5421,
      "Ġmengajar": 5422,
      "Ġdomain": 5423,
      "ï¿½": 5424,
      "ĠNur": 5425,
      "Ġsapi": 5426,
      "Ġde": 5427,
      "okrasi": 5428,
      "ĠBlack": 5429,
      "Ġhtt": 5430,
      "Ġbetapa": 5431,
      "Ġberdua": 5432,
      "Ġmotivasi": 5433,
      "ĠHingga": 5434,
      "Ġstrategis": 5435,
      "antang": 5436,
      "Ġtarik": 5437,
      "Ġnih": 5438,
      "Ġ+": 5439,
      "oman": 5440,
      "Ġdirasakan": 5441,
      "Ġrumahnya": 5442,
      "arahan": 5443,
      "ĠSuk": 5444,
      "Ġmalu": 5445,
      "Ġjadikan": 5446,
      "mudah": 5447,
      "ĠSelasa": 5448,
      "ĠInternet": 5449,
      "Ġorangtua": 5450,
      "aket": 5451,
      "Ġminat": 5452,
      "Ġbac": 5453,
      "Ġwaktunya": 5454,
      "ĠPapua": 5455,
      "Ġpenyelengg": 5456,
      "idi": 5457,
      "adangan": 5458,
      "ĠUnited": 5459,
      "Ġvagina": 5460,
      "Ġsm": 5461,
      "Ġpapan": 5462,
      "ake": 5463,
      "angkut": 5464,
      "Ġ26": 5465,
      "--": 5466,
      "ĠBesar": 5467,
      "amah": 5468,
      "Ġmenginap": 5469,
      "Ġfashion": 5470,
      "Ġmengant": 5471,
      "Ġmemegang": 5472,
      "24": 5473,
      "emuk": 5474,
      "Ġadik": 5475,
      "Ġpalsu": 5476,
      "urahan": 5477,
      "Ġlintas": 5478,
      "yukur": 5479,
      "uler": 5480,
      "ĠGuru": 5481,
      "impulan": 5482,
      "Ġlapisan": 5483,
      ".âĢľ": 5484,
      "Ġtutur": 5485,
      "Ġ2009": 5486,
      "ĠRah": 5487,
      "ĠAbu": 5488,
      "Ġmainkan": 5489,
      "gin": 5490,
      "Ġnyeri": 5491,
      "Ġselaku": 5492,
      "entrasi": 5493,
      "ĠMenurutnya": 5494,
      "Ġpindah": 5495,
      "araf": 5496,
      "IK": 5497,
      "Ġmatang": 5498,
      "Ġkepadanya": 5499,
      "Ġantaranya": 5500,
      "Ġpenonton": 5501,
      "Ġsesi": 5502,
      "Ġambeien": 5503,
      "ĠBe": 5504,
      "ĠSemakin": 5505,
      "hats": 5506,
      "ĠBag": 5507,
      "Kita": 5508,
      "Ġpeman": 5509,
      "ombok": 5510,
      "ĠSar": 5511,
      "ĠIndia": 5512,
      "ĠAf": 5513,
      "sedur": 5514,
      "Ġketerampilan": 5515,
      "Ġkerjasama": 5516,
      "ĠFakultas": 5517,
      "Ġshalat": 5518,
      "umahan": 5519,
      "ĠTerd": 5520,
      "Ġsuhu": 5521,
      "ĠTas": 5522,
      "Ġwah": 5523,
      "ĠToko": 5524,
      "Ġtimur": 5525,
      "Ġkawan": 5526,
      "akup": 5527,
      "encanakan": 5528,
      "Ġ500": 5529,
      "ĠSabtu": 5530,
      "tan": 5531,
      "ĠTu": 5532,
      "AP": 5533,
      "Ġpertimbangan": 5534,
      "iakan": 5535,
      "Ġdisertai": 5536,
      "utang": 5537,
      "Ġideal": 5538,
      "ement": 5539,
      "Ġnov": 5540,
      "elek": 5541,
      "Ġberedar": 5542,
      "Ġmenjamin": 5543,
      "Ġpengertian": 5544,
      "Ġurut": 5545,
      "Ġketua": 5546,
      "ĠWindows": 5547,
      "Ġfot": 5548,
      "olos": 5549,
      "indar": 5550,
      "Ġjaminan": 5551,
      "ĠBagian": 5552,
      "itual": 5553,
      "negara": 5554,
      "Ġmengganti": 5555,
      "ĠSpanyol": 5556,
      "ĠKu": 5557,
      "angkutan": 5558,
      "ĠHer": 5559,
      "Ġpis": 5560,
      "Ġtersenyum": 5561,
      "arak": 5562,
      "AW": 5563,
      "Ġsosi": 5564,
      "pot": 5565,
      "Ġroda": 5566,
      "aysia": 5567,
      "ĠHukum": 5568,
      "Ġpenawaran": 5569,
      "Ġlangit": 5570,
      "inggris": 5571,
      "Ġkatakan": 5572,
      "Ġevent": 5573,
      "ĠLakukan": 5574,
      "Ġsenjata": 5575,
      "Ġkelapa": 5576,
      "ĠKhusus": 5577,
      "Ġbatang": 5578,
      "Ġberukuran": 5579,
      "Ġbapak": 5580,
      "Ġperlahan": 5581,
      "Ġkeker": 5582,
      "Ġdisesuaikan": 5583,
      "ĠMasalah": 5584,
      "ou": 5585,
      "KP": 5586,
      "Ġ80": 5587,
      "ĠKor": 5588,
      "alisa": 5589,
      "ĠRaya": 5590,
      "21": 5591,
      "anggar": 5592,
      "ĠUt": 5593,
      "ĠFor": 5594,
      "ĠMeny": 5595,
      "gag": 5596,
      "Ġtangk": 5597,
      "ĠAll": 5598,
      "Ġmadu": 5599,
      "Ġsantai": 5600,
      "injal": 5601,
      "ĠHam": 5602,
      "Ġton": 5603,
      "anjung": 5604,
      "ĠArtinya": 5605,
      "odo": 5606,
      "Ġdinilai": 5607,
      "Ġcuaca": 5608,
      "Ġpemakaian": 5609,
      "Ġkala": 5610,
      "ĠJaya": 5611,
      "ugikan": 5612,
      "sihan": 5613,
      "Ġunggul": 5614,
      "atangkan": 5615,
      "Ġditutup": 5616,
      "Ġplatform": 5617,
      "Ġkenaikan": 5618,
      "eher": 5619,
      "Ġdijelaskan": 5620,
      "elahan": 5621,
      "Ġmenyesuaikan": 5622,
      "Ġdiny": 5623,
      "Ġjelasnya": 5624,
      "ilaian": 5625,
      "Ġbertaruh": 5626,
      "adhan": 5627,
      "ĠPEN": 5628,
      "ĠMotor": 5629,
      "23": 5630,
      "Ġuji": 5631,
      "elakaan": 5632,
      "ĠSat": 5633,
      "ĠItal": 5634,
      "rig": 5635,
      "ody": 5636,
      "inary": 5637,
      "Ġpantas": 5638,
      "eck": 5639,
      "Ġmenyak": 5640,
      "Ġkewajiban": 5641,
      "Ġdikunjungi": 5642,
      "Ġsinar": 5643,
      "Ġleg": 5644,
      ".[": 5645,
      "Ġaset": 5646,
      "alas": 5647,
      "oss": 5648,
      "Ġperforma": 5649,
      "produk": 5650,
      "Ġmenggunakannya": 5651,
      "Ġmeyak": 5652,
      "Ġmemberit": 5653,
      "ĠSuper": 5654,
      "ematika": 5655,
      "Ġkoneksi": 5656,
      "tein": 5657,
      "Ġklien": 5658,
      "Ġseberapa": 5659,
      "Ġtriliun": 5660,
      "Ġgolongan": 5661,
      "ĠMakanan": 5662,
      "owo": 5663,
      "Ġpenyimpanan": 5664,
      "roses": 5665,
      "Ġgadget": 5666,
      "Ġsesama": 5667,
      "Ġmenyebar": 5668,
      "yakinan": 5669,
      "Ġartis": 5670,
      "masalah": 5671,
      "Ġinggris": 5672,
      "Ġisu": 5673,
      "Ġsetia": 5674,
      "ĠTah": 5675,
      "Ġsurve": 5676,
      "Ġkac": 5677,
      "tip": 5678,
      "ĠPa": 5679,
      "Ġnak": 5680,
      "Ġopsi": 5681,
      "acu": 5682,
      "ĠPenelitian": 5683,
      "barang": 5684,
      "Ġkarenanya": 5685,
      "ĠBBM": 5686,
      "oyota": 5687,
      "Ġkampung": 5688,
      "ence": 5689,
      "Ġmenegaskan": 5690,
      "Ġletak": 5691,
      "Ġkolom": 5692,
      "Ġpenipuan": 5693,
      "elenggarakan": 5694,
      "Ġketur": 5695,
      "ĠDI": 5696,
      "ĠBerbagai": 5697,
      "Ġgereja": 5698,
      "nu": 5699,
      "ĠBitcoin": 5700,
      "ĠPerk": 5701,
      "Ġmenghadirkan": 5702,
      "Ġmotif": 5703,
      "Ġrespon": 5704,
      "Ġmemasukkan": 5705,
      "Ġterpilih": 5706,
      "ĠMana": 5707,
      "Ġpatut": 5708,
      "Ġbuang": 5709,
      "ĠMemb": 5710,
      "ĠTaman": 5711,
      "antaran": 5712,
      "ĠIst": 5713,
      "Ġkorupsi": 5714,
      "upuk": 5715,
      "Ġlatar": 5716,
      "Ġant": 5717,
      "Ġjurusan": 5718,
      "Ġbiji": 5719,
      "Ġterdekat": 5720,
      "ulah": 5721,
      "Ġmenangis": 5722,
      "Ġterdaftar": 5723,
      "ergi": 5724,
      "ĠAcara": 5725,
      "Ġkelahiran": 5726,
      "iu": 5727,
      "Ġinterior": 5728,
      "awesi": 5729,
      "Ġbervari": 5730,
      "roup": 5731,
      "Ġanc": 5732,
      "Ġkonsisten": 5733,
      "ĠFebruari": 5734,
      "Ġpeneliti": 5735,
      "ĠFitur": 5736,
      "ewek": 5737,
      "ajian": 5738,
      "titusi": 5739,
      "Ġterdengar": 5740,
      "idan": 5741,
      "antau": 5742,
      "alaxy": 5743,
      "Ġmengenakan": 5744,
      "agar": 5745,
      "Ġdiminta": 5746,
      "Ġterjamin": 5747,
      "Ġbersamaan": 5748,
      "Ġfacebook": 5749,
      "Ġmor": 5750,
      "ĠEr": 5751,
      "irik": 5752,
      "amaha": 5753,
      "Ġsabar": 5754,
      "Ġgw": 5755,
      "Ġseiring": 5756,
      "Ġmendes": 5757,
      "Ġkecewa": 5758,
      "ĠSayangnya": 5759,
      "Ġlambat": 5760,
      "Ġsetu": 5761,
      "Ġsejauh": 5762,
      "ose": 5763,
      "eral": 5764,
      "Ġelektronik": 5765,
      "Ġkampanye": 5766,
      "Ġberjudul": 5767,
      "ĠInstagram": 5768,
      "ĠPet": 5769,
      "Ġpres": 5770,
      "ĠBah": 5771,
      "Ġkoleksi": 5772,
      "Ġanalisis": 5773,
      "udayaan": 5774,
      "Ġgizi": 5775,
      "Ġmake": 5776,
      "Ġbermin": 5777,
      "angku": 5778,
      "imantan": 5779,
      "empa": 5780,
      "apt": 5781,
      "Ġmomen": 5782,
      ".,": 5783,
      "encanaan": 5784,
      "Ġkadar": 5785,
      "Ġmemandang": 5786,
      "Ġanj": 5787,
      "embuhan": 5788,
      "Ġflash": 5789,
      "lihatkan": 5790,
      "Ġmendengarkan": 5791,
      "ĠFilm": 5792,
      "asiswa": 5793,
      "Ġservice": 5794,
      "ahabat": 5795,
      "ĠTips": 5796,
      "Ġinovasi": 5797,
      "Ġvarian": 5798,
      "ĠTang": 5799,
      "endela": 5800,
      "ĠBas": 5801,
      "Ġjamur": 5802,
      "Ġikuti": 5803,
      "Ġbatik": 5804,
      "ĠMaj": 5805,
      "ĠRepublik": 5806,
      "Ġterbilang": 5807,
      "Ġundangan": 5808,
      "Ġmenetapkan": 5809,
      "Ġterpenting": 5810,
      "sal": 5811,
      "Ġakadem": 5812,
      "Ġberjuang": 5813,
      "Ġkehadiran": 5814,
      "Ġakal": 5815,
      "Ġhobi": 5816,
      "Ġdiser": 5817,
      "ĠDen": 5818,
      "Ġrasakan": 5819,
      "ĠTur": 5820,
      "Ġkag": 5821,
      "Ġsampaikan": 5822,
      "son": 5823,
      "iskin": 5824,
      "Ġ197": 5825,
      "ajaan": 5826,
      "ĠTinggi": 5827,
      "Ġdrama": 5828,
      "ĠAli": 5829,
      "Ġmengalahkan": 5830,
      "ĠIT": 5831,
      "ahatan": 5832,
      "500": 5833,
      "ĠSama": 5834,
      "Ġsekalian": 5835,
      "Ġteknis": 5836,
      "Ġoptimal": 5837,
      "alo": 5838,
      "Ġrenang": 5839,
      "Ġpuluh": 5840,
      "ĠPemilihan": 5841,
      "ĠWid": 5842,
      "Ġmengajukan": 5843,
      "Ġdiduga": 5844,
      "ĠAustralia": 5845,
      "Ġmassa": 5846,
      "Ġbrow": 5847,
      "Ġsentuhan": 5848,
      "Ġpariwisata": 5849,
      "Ġrekomendasi": 5850,
      "Ġatap": 5851,
      "abar": 5852,
      "Ġdiskusi": 5853,
      "etakan": 5854,
      "igh": 5855,
      "Ġistr": 5856,
      "esta": 5857,
      "Ġginjal": 5858,
      "CA": 5859,
      "ahnya": 5860,
      "Ġistimewa": 5861,
      "ĠPlay": 5862,
      "Ġmenengah": 5863,
      "ift": 5864,
      "Ġputri": 5865,
      "SD": 5866,
      "Ġdiselenggarakan": 5867,
      "ulauan": 5868,
      "ambahan": 5869,
      "ĠKeh": 5870,
      "Ġdu": 5871,
      "Ġdeb": 5872,
      "ĠXiaomi": 5873,
      "ĠBand": 5874,
      "ancurkan": 5875,
      "Ġbotol": 5876,
      "Ġtergolong": 5877,
      "Ġtersangka": 5878,
      "ĠSW": 5879,
      ".(": 5880,
      "Ġdirilis": 5881,
      "zi": 5882,
      "Ġmandiri": 5883,
      "Ġbau": 5884,
      "alog": 5885,
      "Ġ90": 5886,
      "ĠPasar": 5887,
      "ume": 5888,
      "Ġtersebar": 5889,
      "andu": 5890,
      "antian": 5891,
      "Ġdicari": 5892,
      "Ġdat": 5893,
      "Ġefisien": 5894,
      "ulir": 5895,
      "Ġpelajar": 5896,
      "ĠPat": 5897,
      "ezat": 5898,
      "ĠItalia": 5899,
      "Ġjutaan": 5900,
      "Ġpembicara": 5901,
      "ĠPastikan": 5902,
      "ype": 5903,
      "Ġep": 5904,
      "inci": 5905,
      "Ġpimpinan": 5906,
      "Ġarus": 5907,
      "Ġkesadaran": 5908,
      "Ġlucu": 5909,
      "oth": 5910,
      "ekar": 5911,
      "iranya": 5912,
      "ĠJumlah": 5913,
      "uksesan": 5914,
      "sen": 5915,
      "ĠBuku": 5916,
      "Ġmemasak": 5917,
      "urnal": 5918,
      "alangan": 5919,
      "Ġkarir": 5920,
      "Ġformat": 5921,
      "Ġsuci": 5922,
      "Ġkedalam": 5923,
      "ĠTok": 5924,
      "imbol": 5925,
      "antiasa": 5926,
      "IT": 5927,
      "Ġselatan": 5928,
      "Ġmencakup": 5929,
      "Ġtebal": 5930,
      "Ġkuning": 5931,
      "besar": 5932,
      "Ġlunak": 5933,
      "Ġmenyarankan": 5934,
      "ĠTaruhan": 5935,
      "lemen": 5936,
      "Ġberkurang": 5937,
      "atim": 5938,
      "ĠLangkah": 5939,
      "Ġdidalamnya": 5940,
      "Dengan": 5941,
      "ĠDil": 5942,
      "sus": 5943,
      "Ġproperti": 5944,
      "Ġmenangani": 5945,
      "Ġdiar": 5946,
      "Ġkelihatan": 5947,
      "Ġdidik": 5948,
      "ĠIsra": 5949,
      "Ġrapi": 5950,
      "ĠSya": 5951,
      "out": 5952,
      "Ġjembatan": 5953,
      "Ġmenyambut": 5954,
      "Ġmemori": 5955,
      "sul": 5956,
      "unjukkan": 5957,
      "ĠTanah": 5958,
      "ĠPL": 5959,
      "Ġpertar": 5960,
      "anchester": 5961,
      "Ġterbang": 5962,
      "ven": 5963,
      "22": 5964,
      "eed": 5965,
      "Ġseny": 5966,
      "Ġkonvensi": 5967,
      "Ġdidirikan": 5968,
      "Ġfit": 5969,
      "Ġsepakbola": 5970,
      "80": 5971,
      "Ġleher": 5972,
      "Ġdilanjutkan": 5973,
      "Ġ70": 5974,
      "trans": 5975,
      "ning": 5976,
      "Ġcampuran": 5977,
      "ĠSulawesi": 5978,
      "imaan": 5979,
      "lakukan": 5980,
      "tanya": 5981,
      "Ġdiatur": 5982,
      "Ġmemeriksa": 5983,
      "omod": 5984,
      "anganan": 5985,
      "anjikan": 5986,
      "Ġlidah": 5987,
      "onf": 5988,
      "Ġkecelakaan": 5989,
      "Ġdisarankan": 5990,
      "ĠMalaysia": 5991,
      "ĠSMS": 5992,
      "Ġbersangkutan": 5993,
      "Ġsayuran": 5994,
      "Ġsholat": 5995,
      "isikan": 5996,
      "Ġkeluarganya": 5997,
      "ĠKeuangan": 5998,
      "ĠMembuat": 5999,
      "40": 6000,
      "Ġbercerita": 6001,
      "etail": 6002,
      "ĠSilahkan": 6003,
      "Ġom": 6004,
      "orld": 6005,
      "anjar": 6006,
      "Ġperhitungan": 6007,
      "Ġ29": 6008,
      "Ġkayak": 6009,
      "ouc": 6010,
      "Ġkekuasaan": 6011,
      "ĠBelum": 6012,
      "ĠGB": 6013,
      "untuk": 6014,
      "Ġmenular": 6015,
      "Ġmengalir": 6016,
      "Ġmengucapkan": 6017,
      "Ġsenantiasa": 6018,
      "ĠMesin": 6019,
      "ordinasi": 6020,
      "egr": 6021,
      "Ġkeberhasilan": 6022,
      "atap": 6023,
      "ĠSup": 6024,
      "ĠIS": 6025,
      "umpai": 6026,
      "Ġtutorial": 6027,
      "agaimana": 6028,
      "kita": 6029,
      "ten": 6030,
      "ĠJogja": 6031,
      "ĠKondisi": 6032,
      "eki": 6033,
      "ĠCP": 6034,
      "ĠJo": 6035,
      "iasa": 6036,
      "Ġmiliter": 6037,
      "Ġtand": 6038,
      "UT": 6039,
      "iture": 6040,
      "oles": 6041,
      "Ġkhasiat": 6042,
      "Ġmenyajikan": 6043,
      "Ġsing": 6044,
      "Ġatlet": 6045,
      "ĠMP": 6046,
      "enomena": 6047,
      "Ġibunya": 6048,
      "Ġsaksi": 6049,
      "Ġbasah": 6050,
      "Ġsetuju": 6051,
      "ekaan": 6052,
      "miah": 6053,
      "Ġterjaga": 6054,
      "Ġsemata": 6055,
      "ancing": 6056,
      "ilas": 6057,
      "Ġpengen": 6058,
      "ĠSEO": 6059,
      "Ġberkat": 6060,
      "Ġmemimpin": 6061,
      "Ġfurn": 6062,
      "ight": 6063,
      "ĠiPhone": 6064,
      "ĠKat": 6065,
      "Ġdisajikan": 6066,
      "adari": 6067,
      "ĠBAB": 6068,
      "Ġvisi": 6069,
      "Ġmewujudkan": 6070,
      "Ġperguruan": 6071,
      "gian": 6072,
      "resiasi": 6073,
      "ĠBant": 6074,
      "ĠSa": 6075,
      "Ġancaman": 6076,
      "walnya": 6077,
      "uto": 6078,
      "Ġsop": 6079,
      "Ġcelana": 6080,
      "Ġstabil": 6081,
      "Ġinvestor": 6082,
      "Ġgambaran": 6083,
      "Tidak": 6084,
      "Ġjep": 6085,
      "ĠFl": 6086,
      "Ġbook": 6087,
      "Ġsarapan": 6088,
      "ĠDian": 6089,
      "Ġwalau": 6090,
      "ubungkan": 6091,
      "Ġbangga": 6092,
      "oks": 6093,
      "omm": 6094,
      "ĠDesain": 6095,
      "ĠManchester": 6096,
      "Ġprosedur": 6097,
      "ampaknya": 6098,
      "onj": 6099,
      "Ġsasaran": 6100,
      "Ġmeres": 6101,
      "Ġtol": 6102,
      "Kalau": 6103,
      "UH": 6104,
      "itanya": 6105,
      "ider": 6106,
      "Ġimpian": 6107,
      "celona": 6108,
      "Ġpesanan": 6109,
      "sc": 6110,
      "ansir": 6111,
      "ĠToyota": 6112,
      "Ġyah": 6113,
      "Ġvol": 6114,
      "Ġberdampak": 6115,
      "erahan": 6116,
      "Ġjujur": 6117,
      "Ġputra": 6118,
      "Ġâ": 6119,
      "Ġpub": 6120,
      "urian": 6121,
      "assar": 6122,
      "Ġpeg": 6123,
      "jar": 6124,
      "Ġmenel": 6125,
      "bing": 6126,
      "ering": 6127,
      "Ġlelah": 6128,
      "UD": 6129,
      "ancur": 6130,
      "batasan": 6131,
      "Ġsiapapun": 6132,
      "Ġselera": 6133,
      "hy": 6134,
      "Ġketurunan": 6135,
      "yanya": 6136,
      "Ġru": 6137,
      "Ġwww": 6138,
      "ambu": 6139,
      "ĠBu": 6140,
      "antum": 6141,
      "ĠKantor": 6142,
      "ediaan": 6143,
      "kripsikan": 6144,
      "kada": 6145,
      "Ġmempermudah": 6146,
      "Ġkomitmen": 6147,
      "Ġpanggilan": 6148,
      "Ġmemaks": 6149,
      "ĠGalaxy": 6150,
      "Ġpendekatan": 6151,
      "esif": 6152,
      "Ġmengonsumsi": 6153,
      "Ġbertindak": 6154,
      "aktif": 6155,
      "Ada": 6156,
      "Ġmusuh": 6157,
      "bahan": 6158,
      "Ð°": 6159,
      "Ġbersyukur": 6160,
      "Ġperek": 6161,
      "yi": 6162,
      "ĠCari": 6163,
      "bankan": 6164,
      "ĠDewan": 6165,
      "ĠAhmad": 6166,
      "Ġpandang": 6167,
      "ayat": 6168,
      "ature": 6169,
      "Ġmitra": 6170,
      "ayangan": 6171,
      "Ġbeg": 6172,
      "Ġajaran": 6173,
      "Ġsinyal": 6174,
      "Ġnikmat": 6175,
      "Ġ2008": 6176,
      "ĠBahan": 6177,
      "ĠBerk": 6178,
      "ile": 6179,
      "Ġlezat": 6180,
      "ĠGar": 6181,
      "ĠBur": 6182,
      "ĠAgung": 6183,
      "Ġnovel": 6184,
      "Ġbengk": 6185,
      "Ġungkap": 6186,
      "ĠSingapura": 6187,
      "Ġcerah": 6188,
      "Ġpengin": 6189,
      "Ġ35": 6190,
      "ĠSurat": 6191,
      "tawa": 6192,
      "mail": 6193,
      "adis": 6194,
      "osk": 6195,
      "Ġkebersihan": 6196,
      "Ġmenyaksikan": 6197,
      "ektif": 6198,
      "Ġtampaknya": 6199,
      "ĠBaca": 6200,
      "YA": 6201,
      "ĠContohnya": 6202,
      "icarakan": 6203,
      "ĠSMK": 6204,
      "Ġtrend": 6205,
      "awali": 6206,
      "so": 6207,
      "Ġseminggu": 6208,
      "ĠKalimantan": 6209,
      "Ġkey": 6210,
      "Ġmenjelang": 6211,
      "Ġberpend": 6212,
      "opy": 6213,
      "Ġkandang": 6214,
      "elihara": 6215,
      "tidak": 6216,
      "sis": 6217,
      "Ġpengaturan": 6218,
      "Ġlayaknya": 6219,
      "indahkan": 6220,
      "Ġdibayar": 6221,
      "ĠCukup": 6222,
      "asir": 6223,
      "Ġmohon": 6224,
      "Ġadat": 6225,
      "ler": 6226,
      "Ġganti": 6227,
      "Cara": 6228,
      "Ġdisukai": 6229,
      "Ġprotein": 6230,
      "Ġuniversitas": 6231,
      "Ġmiskin": 6232,
      "Ġfin": 6233,
      "pan": 6234,
      "Ġberin": 6235,
      "ebasan": 6236,
      "ĠUM": 6237,
      "gerakan": 6238,
      "erifikasi": 6239,
      "Ġmembagikan": 6240,
      "ike": 6241,
      "Ġpadat": 6242,
      "Ġayahnya": 6243,
      "ĠAng": 6244,
      "Ġongk": 6245,
      "Ġtertutup": 6246,
      "ĠLombok": 6247,
      "ĠPolres": 6248,
      "Ġpasal": 6249,
      "Ġdif": 6250,
      "Ġsetahun": 6251,
      "ĠRS": 6252,
      "Ġmembedakan": 6253,
      "Ġdirancang": 6254,
      "Ġkejahatan": 6255,
      "utihan": 6256,
      "ĠPri": 6257,
      "esign": 6258,
      "Ġparkir": 6259,
      "ĠDirektur": 6260,
      "iteria": 6261,
      "OP": 6262,
      "Ġsupport": 6263,
      "Ġpemasangan": 6264,
      "Ġberhati": 6265,
      "iraan": 6266,
      "Ġdipert": 6267,
      "ĠAbdul": 6268,
      "ĠArt": 6269,
      "Ġelemen": 6270,
      "jir": 6271,
      "Ġvis": 6272,
      "ĠStudi": 6273,
      "Ġnampak": 6274,
      "Ġdinyatakan": 6275,
      "Ġsipilis": 6276,
      "jub": 6277,
      "Ġstres": 6278,
      "ĠPertanyaan": 6279,
      "ĠJoh": 6280,
      "Ġhubungi": 6281,
      "Ġmenyes": 6282,
      "Ġ32": 6283,
      "ĠPD": 6284,
      "ĠEf": 6285,
      "ĠPenc": 6286,
      "enek": 6287,
      "Ġsystem": 6288,
      "ujian": 6289,
      "Ġalbum": 6290,
      "Ġswasta": 6291,
      "Ġsuaminya": 6292,
      "agukan": 6293,
      "Ġdiproduksi": 6294,
      "Ġelegan": 6295,
      "obalah": 6296,
      "Ġberkomunikasi": 6297,
      "Ġkew": 6298,
      "Ġtren": 6299,
      "Ġdikerjakan": 6300,
      "ĠManfaat": 6301,
      "Ġkond": 6302,
      "Ġtarif": 6303,
      "Ġdikenakan": 6304,
      "Ġhosting": 6305,
      "udukan": 6306,
      "ĠSepatu": 6307,
      "Ġmembah": 6308,
      "Ġsedih": 6309,
      "tempat": 6310,
      "ĠSip": 6311,
      "Ġtelinga": 6312,
      "Ġdiakses": 6313,
      "Ġkonvensional": 6314,
      "ĠWi": 6315,
      "Ġperingatan": 6316,
      "baca": 6317,
      "Ġkis": 6318,
      "Ġsekel": 6319,
      "alikota": 6320,
      "Ġlelaki": 6321,
      "lasi": 6322,
      "ĠRiau": 6323,
      "ĠAnggota": 6324,
      "ĠMelalui": 6325,
      "Ġprot": 6326,
      "Ġditampilkan": 6327,
      "ĠTengg": 6328,
      "Ġmalas": 6329,
      "Ġharap": 6330,
      "Ġdiciptakan": 6331,
      "Ġseleksi": 6332,
      "ĠASI": 6333,
      "ney": 6334,
      "andainya": 6335,
      "amina": 6336,
      "Ġkian": 6337,
      "ikator": 6338,
      "ĠUsaha": 6339,
      "isar": 6340,
      "ĠTangerang": 6341,
      "ĠPR": 6342,
      "Ġmenuntut": 6343,
      "Ġdijalankan": 6344,
      "gar": 6345,
      "Ġjendela": 6346,
      "Ġmask": 6347,
      "Ġpenilaian": 6348,
      "Ġmembiarkan": 6349,
      "Ġmekan": 6350,
      "Ġanus": 6351,
      "Ġtunggal": 6352,
      "COM": 6353,
      "Ġloh": 6354,
      "Ġtopik": 6355,
      "Ġkecamatan": 6356,
      "ejahter": 6357,
      "daftarkan": 6358,
      "ĠMemiliki": 6359,
      "Ġtaj": 6360,
      "Ġhandphone": 6361,
      "Ġ!": 6362,
      "Ġkerajaan": 6363,
      "Ter": 6364,
      "ĠIII": 6365,
      "ym": 6366,
      "angkatan": 6367,
      "Ġnarkoba": 6368,
      "endam": 6369,
      "Ġspesial": 6370,
      "Ġrangkaian": 6371,
      "Ġtangannya": 6372,
      "ĠMudah": 6373,
      "Ðµ": 6374,
      "ahagia": 6375,
      "ory": 6376,
      "identifikasi": 6377,
      "tifikat": 6378,
      "Ġkebetulan": 6379,
      "Ġbahaya": 6380,
      "ĠRAM": 6381,
      "Ġdipenuhi": 6382,
      "macam": 6383,
      "oner": 6384,
      "Ġori": 6385,
      "rut": 6386,
      "Ġprop": 6387,
      "meng": 6388,
      "way": 6389,
      "Ġlaman": 6390,
      "âĢĻ.": 6391,
      "Ġbahas": 6392,
      "Ġoffline": 6393,
      "Ġmari": 6394,
      "eme": 6395,
      "ĠOlah": 6396,
      "Ġcr": 6397,
      "NE": 6398,
      "Ġterpisah": 6399,
      "va": 6400,
      "Ġkonflik": 6401,
      "ĠCat": 6402,
      "OB": 6403,
      "Ġdengannya": 6404,
      "Ġmenangkap": 6405,
      "Ġarsit": 6406,
      "ational": 6407,
      "Ġterkesan": 6408,
      "Ġpe": 6409,
      "esa": 6410,
      "Ġrokok": 6411,
      "Ġkepuasan": 6412,
      "iam": 6413,
      "Ġjas": 6414,
      "awanan": 6415,
      "ĠIsrael": 6416,
      "ĠPang": 6417,
      "olisian": 6418,
      "ich": 6419,
      "Ġharian": 6420,
      "ĠGol": 6421,
      "ĠBiaya": 6422,
      "lon": 6423,
      "Ġmenghapus": 6424,
      "iq": 6425,
      "ewatkan": 6426,
      "Ġakrab": 6427,
      "Ġpembuluh": 6428,
      "Ġkesuksesan": 6429,
      "ĠSWT": 6430,
      "ĠAz": 6431,
      "Ġkitab": 6432,
      "Ġdelapan": 6433,
      "endalikan": 6434,
      "ĠYamaha": 6435,
      "kali": 6436,
      "Ġdibeli": 6437,
      "Ġpu": 6438,
      "ebarkan": 6439,
      "Ġ31": 6440,
      "Ġucapan": 6441,
      "Ġberdoa": 6442,
      "Ġpadanya": 6443,
      "Ġterapi": 6444,
      "ĠAkibat": 6445,
      "Ġkeyakinan": 6446,
      "Ġberhak": 6447,
      "Ġkencing": 6448,
      "ĠDomino": 6449,
      "Ġ150": 6450,
      "Ġfinal": 6451,
      "Ġemp": 6452,
      "ĠPeraturan": 6453,
      "Ġmenghitung": 6454,
      "Ġmembuang": 6455,
      "MA": 6456,
      "unggung": 6457,
      "Ġditempat": 6458,
      "Ġmempertimbangkan": 6459,
      "Ġkup": 6460,
      "Ġbermacam": 6461,
      "ĠSc": 6462,
      "Ġmembelinya": 6463,
      "enderal": 6464,
      "Ġhatinya": 6465,
      "board": 6466,
      "Ġcar": 6467,
      "Ġaneka": 6468,
      "san": 6469,
      "vestasi": 6470,
      "Ġadministrasi": 6471,
      "jam": 6472,
      "Ġ45": 6473,
      "Ġberuntung": 6474,
      "Ġnah": 6475,
      "ecil": 6476,
      "ĠSus": 6477,
      "ustakaan": 6478,
      "Ġpesat": 6479,
      "Ġutamanya": 6480,
      "anjutan": 6481,
      "ĠMakanya": 6482,
      "Se": 6483,
      "enteng": 6484,
      "unjukan": 6485,
      "ĠBerb": 6486,
      "ĠSB": 6487,
      "ĠBarcelona": 6488,
      "indu": 6489,
      "Ġtumbuhan": 6490,
      "Ð¾": 6491,
      "wancara": 6492,
      "Ġbroker": 6493,
      "Ġmag": 6494,
      "ĠMedia": 6495,
      "edera": 6496,
      "Ġsejenis": 6497,
      "ĠMurah": 6498,
      "Ġkant": 6499,
      "ongkok": 6500,
      "ĠOb": 6501,
      "Ġterbar": 6502,
      "ĠJelly": 6503,
      "ĠCina": 6504,
      "bawa": 6505,
      "akili": 6506,
      "pem": 6507,
      "Ġsak": 6508,
      "ĠUk": 6509,
      "Ġmemec": 6510,
      "lar": 6511,
      "Ġkeluhan": 6512,
      "Ġstat": 6513,
      "ĠSl": 6514,
      "Ġkakak": 6515,
      "Ġpengemb": 6516,
      "Ġlantaran": 6517,
      "Ġdong": 6518,
      "Ġtertulis": 6519,
      "Ġjah": 6520,
      "uruk": 6521,
      "ĠSid": 6522,
      "Ġgug": 6523,
      "les": 6524,
      "ahlian": 6525,
      "ĠPaket": 6526,
      "Ġkekayaan": 6527,
      "janya": 6528,
      "uth": 6529,
      "ĠBro": 6530,
      "Ġbanjir": 6531,
      "Ġlolos": 6532,
      "Ġbinatang": 6533,
      "asang": 6534,
      "EK": 6535,
      "Ġusai": 6536,
      "ĠImam": 6537,
      "ĠEntah": 6538,
      "ĠKPK": 6539,
      "Ġmenanyakan": 6540,
      "Ġsaatnya": 6541,
      "Ġmerugikan": 6542,
      "OK": 6543,
      "linya": 6544,
      "anjakan": 6545,
      "Ġbervariasi": 6546,
      "Ġtercatat": 6547,
      "Ġsport": 6548,
      "Ġmanual": 6549,
      "Ġliter": 6550,
      "Ġpenutup": 6551,
      "Ġjumlahnya": 6552,
      "organ": 6553,
      "Ġpremi": 6554,
      "ĠBunga": 6555,
      "van": 6556,
      "Ġmencer": 6557,
      "ĠManusia": 6558,
      "ĠHak": 6559,
      "Ġterbiasa": 6560,
      "Ġkenyataan": 6561,
      "pres": 6562,
      "Ġpass": 6563,
      "Ġcewek": 6564,
      "Ġmunculnya": 6565,
      "estiv": 6566,
      "Ġmemanggil": 6567,
      "Kar": 6568,
      "IV": 6569,
      "odi": 6570,
      "Ġislam": 6571,
      "etakkan": 6572,
      "imbing": 6573,
      "ĠSumber": 6574,
      "Ġsalahnya": 6575,
      "Ġilmiah": 6576,
      "ĠMakassar": 6577,
      "Ġdiperkirakan": 6578,
      "Ġmengar": 6579,
      "ĠKo": 6580,
      "ĠST": 6581,
      "ĠKemen": 6582,
      "ews": 6583,
      "gaiman": 6584,
      "ĠSolo": 6585,
      "ĠLampung": 6586,
      "Ġkg": 6587,
      "ĠCap": 6588,
      "Ġputus": 6589,
      "Ġmenggambarkan": 6590,
      "ĠAyah": 6591,
      "Ġmengand": 6592,
      "ĠModel": 6593,
      "Ġbosan": 6594,
      "ometer": 6595,
      "Ġmenemb": 6596,
      "untutan": 6597,
      "emari": 6598,
      "Ġgimana": 6599,
      "ĠGe": 6600,
      "Ġdiluar": 6601,
      "aker": 6602,
      "Ġgemb": 6603,
      "Ġnonton": 6604,
      "utube": 6605,
      "Ġmenyentuh": 6606,
      "Ġragam": 6607,
      "ĠUang": 6608,
      "estival": 6609,
      "Ġkarb": 6610,
      "ĠBany": 6611,
      "Ġmerekomendasikan": 6612,
      "owok": 6613,
      "Ġpembuat": 6614,
      "ambatan": 6615,
      "ense": 6616,
      "Ġberga": 6617,
      "Ġkeselamatan": 6618,
      "Ġtump": 6619,
      "Ġmemicu": 6620,
      "ekuensi": 6621,
      "Ġkendala": 6622,
      "bet": 6623,
      "hawat": 6624,
      "ĠPay": 6625,
      "ĠKi": 6626,
      "ĠTeknologi": 6627,
      "Ġdipahami": 6628,
      "Ġbawang": 6629,
      "Ġkontrol": 6630,
      "Ġdiv": 6631,
      "Ġpenanganan": 6632,
      "ĠUndang": 6633,
      "Ġutara": 6634,
      "Ġditandai": 6635,
      "Qur": 6636,
      "Ġdolar": 6637,
      "ohonan": 6638,
      "egahan": 6639,
      "ĠIN": 6640,
      "Ġkotoran": 6641,
      "ĠManaj": 6642,
      "Ġcur": 6643,
      "ĠApple": 6644,
      "Ġdiakui": 6645,
      "Ġdideskripsikan": 6646,
      "Ġperih": 6647,
      "Ġplan": 6648,
      "umuman": 6649,
      "Ġsia": 6650,
      "Ġdiminati": 6651,
      "yakan": 6652,
      "Ġhormon": 6653,
      "Ġkabel": 6654,
      "Ġsbobet": 6655,
      "imalkan": 6656,
      "antap": 6657,
      "ambangan": 6658,
      "estinya": 6659,
      "hasil": 6660,
      "ĠPemain": 6661,
      "Ġpungk": 6662,
      "Ġkemasan": 6663,
      "Ġmenyimp": 6664,
      "Anda": 6665,
      "Setelah": 6666,
      "Ġkeempat": 6667,
      "Ġmengajarkan": 6668,
      "alisme": 6669,
      "Ġkompleks": 6670,
      "Ġlantas": 6671,
      "Ġspir": 6672,
      "Ġpant": 6673,
      "ikulum": 6674,
      "CO": 6675,
      "Ġmemperlihatkan": 6676,
      "Ġdepannya": 6677,
      "âĢĵ": 6678,
      "ins": 6679,
      "aingan": 6680,
      "Ġtag": 6681,
      "ux": 6682,
      "Ġkus": 6683,
      "Ġmengam": 6684,
      "Ġmut": 6685,
      "ary": 6686,
      "Ġrom": 6687,
      "pol": 6688,
      "Ġbandara": 6689,
      "onc": 6690,
      "ĠBen": 6691,
      "Ġmenyelamatkan": 6692,
      "ĠðŁĺ": 6693,
      "Ġinspirasi": 6694,
      "oso": 6695,
      "Ġshare": 6696,
      "Ġdada": 6697,
      "Ġwadah": 6698,
      "ĠGamat": 6699,
      "Ġistirahat": 6700,
      "ica": 6701,
      "Ġkambing": 6702,
      "ilikinya": 6703,
      "Ġiya": 6704,
      "Ġpidana": 6705,
      "ingkatkan": 6706,
      "angsing": 6707,
      "ĠKapol": 6708,
      "28": 6709,
      "Ġmenerus": 6710,
      "lok": 6711,
      "Ġpraktek": 6712,
      "ĠKristus": 6713,
      "Ġrahim": 6714,
      "Ġperwakilan": 6715,
      "Ġpersaingan": 6716,
      "Ġdisek": 6717,
      "UK": 6718,
      "Ġuntung": 6719,
      "Ġdinas": 6720,
      "Ġpencari": 6721,
      "ekatan": 6722,
      "ikro": 6723,
      "Ġhttp": 6724,
      "Ġedit": 6725,
      "Ġsuk": 6726,
      "Ġdengar": 6727,
      "atural": 6728,
      "ĠMandiri": 6729,
      "Ġmerubah": 6730,
      "Ġmendatangkan": 6731,
      "ĠTanjung": 6732,
      "Ġmewakili": 6733,
      "Ġklasik": 6734,
      "ĠTerdapat": 6735,
      "Ġmengharapkan": 6736,
      "Ġkekerasan": 6737,
      "Ġseragam": 6738,
      "TV": 6739,
      "Ġforum": 6740,
      "Ġsewaktu": 6741,
      "Ġgoreng": 6742,
      "esterol": 6743,
      "oft": 6744,
      "Ġaudi": 6745,
      "Ġmempercepat": 6746,
      "Ġintim": 6747,
      "Ġhijab": 6748,
      "enjolan": 6749,
      "abah": 6750,
      "lig": 6751,
      "Ġcedera": 6752,
      "antren": 6753,
      "wujud": 6754,
      "Ġdibaca": 6755,
      "Ġtahapan": 6756,
      "Ġpangan": 6757,
      "ÂŃ": 6758,
      "ĠRamadhan": 6759,
      "epsi": 6760,
      "ĠSri": 6761,
      "nanya": 6762,
      "Ġpunggung": 6763,
      "Ġmembandingkan": 6764,
      "ĠKend": 6765,
      "ĠLayanan": 6766,
      "Ġsediakan": 6767,
      "ies": 6768,
      "ominasi": 6769,
      "Ġriset": 6770,
      "by": 6771,
      "jukan": 6772,
      "Ġ300": 6773,
      "ĠGames": 6774,
      "Ġmendekati": 6775,
      "Ġgempa": 6776,
      "Ġhalal": 6777,
      "ãģ": 6778,
      "Ġlipat": 6779,
      "AI": 6780,
      "Ġtetangga": 6781,
      "kel": 6782,
      "UI": 6783,
      "allah": 6784,
      "Ġbaku": 6785,
      "Ġkud": 6786,
      "Ġcontohnya": 6787,
      "ĠHo": 6788,
      "utnya": 6789,
      "Ġdihadiri": 6790,
      "ĠBumi": 6791,
      "Ġwarung": 6792,
      "ĠWarna": 6793,
      "ĠRoh": 6794,
      "Ġmelihatnya": 6795,
      "Ġmobile": 6796,
      "ĠSpesifikasi": 6797,
      "retaris": 6798,
      "Ġmengundang": 6799,
      "isal": 6800,
      "Ġturn": 6801,
      "Ġmemperkuat": 6802,
      "BB": 6803,
      "Ġperencanaan": 6804,
      "Ġtenda": 6805,
      "gagalan": 6806,
      "Ġditemp": 6807,
      "Ġberoperasi": 6808,
      "Ġceme": 6809,
      "Ġduga": 6810,
      "Ġlab": 6811,
      "Ġdirek": 6812,
      "Ġtindak": 6813,
      "zah": 6814,
      "Ġadil": 6815,
      "ĠAlat": 6816,
      "Ġmenyusun": 6817,
      "Ġhaji": 6818,
      "Ġusus": 6819,
      "Ġbergantung": 6820,
      "Ġinstan": 6821,
      "Ġbinary": 6822,
      "Ġcor": 6823,
      "aham": 6824,
      "Ġberulang": 6825,
      "Ġgaram": 6826,
      "hiri": 6827,
      "Ġbesarnya": 6828,
      "tel": 6829,
      "Ġmenolong": 6830,
      "Ġvariasi": 6831,
      "Ġdibentuk": 6832,
      "Ġmenghargai": 6833,
      "ĠKartu": 6834,
      "aluan": 6835,
      "ĠSesu": 6836,
      "Ġmaya": 6837,
      "Ġcetak": 6838,
      "ujung": 6839,
      "dy": 6840,
      "Ġhukuman": 6841,
      "ainan": 6842,
      "Ġge": 6843,
      "ĠCor": 6844,
      "Ġmenghentikan": 6845,
      "ĠBud": 6846,
      "Ġroh": 6847,
      "Ġgudang": 6848,
      "elsea": 6849,
      "ĠOlahraga": 6850,
      "Ġpasukan": 6851,
      "nilai": 6852,
      "Ġjahat": 6853,
      "osiasi": 6854,
      "Ġbeasiswa": 6855,
      "Saat": 6856,
      "Ġmelebih": 6857,
      "Ġcl": 6858,
      "Ġreputasi": 6859,
      "sy": 6860,
      "ise": 6861,
      "ikh": 6862,
      "ĠBermain": 6863,
      "bitkan": 6864,
      "ĠNas": 6865,
      "val": 6866,
      "Ġtawaran": 6867,
      "Ġmelatih": 6868,
      "Ġmasukan": 6869,
      "Ġbut": 6870,
      "Ġchat": 6871,
      "Ġmenghemat": 6872,
      "awah": 6873,
      "etulnya": 6874,
      "Ġpenjara": 6875,
      "ternal": 6876,
      "Ġ..": 6877,
      "Ġdiangkat": 6878,
      "etur": 6879,
      "aksasa": 6880,
      "madi": 6881,
      "Ġsesudah": 6882,
      "Ġsepuluh": 6883,
      "Ġlari": 6884,
      "omosikan": 6885,
      "eet": 6886,
      "Ġtrader": 6887,
      "Ġpemin": 6888,
      "Ġpacar": 6889,
      "ĠHan": 6890,
      "Ġkeahlian": 6891,
      "kira": 6892,
      "Ġval": 6893,
      "langkah": 6894,
      "IP": 6895,
      "ask": 6896,
      "Ġbijak": 6897,
      "Ġhard": 6898,
      "ĠMaha": 6899,
      "Ġseakan": 6900,
      "ĠCPNS": 6901,
      "ĠTenggara": 6902,
      "stal": 6903,
      "ĠPilih": 6904,
      "Ġbagikan": 6905,
      "ĠTab": 6906,
      "sih": 6907,
      "ĠOh": 6908,
      "ungkap": 6909,
      "imer": 6910,
      "2017": 6911,
      "Ġmengandalkan": 6912,
      "ĠBak": 6913,
      "Ġsyari": 6914,
      "iet": 6915,
      "Ġ196": 6916,
      "Ġmengul": 6917,
      "ric": 6918,
      "elat": 6919,
      "Ġmurni": 6920,
      "Ġlive": 6921,
      "ĠPlus": 6922,
      "enan": 6923,
      "Ġfull": 6924,
      "Ġmayoritas": 6925,
      "Ġmenghancurkan": 6926,
      "Ġroti": 6927,
      "Ġkarakteristik": 6928,
      "afs": 6929,
      "ging": 6930,
      "uddin": 6931,
      "roh": 6932,
      "epakatan": 6933,
      "Ġpanitia": 6934,
      "Ġmutu": 6935,
      "ĠDapatkan": 6936,
      "ĠCinta": 6937,
      "ĠBeli": 6938,
      "Ġpensi": 6939,
      "tusias": 6940,
      "Ġpelanggaran": 6941,
      "Ġkepemimpinan": 6942,
      "ĠBab": 6943,
      "foto": 6944,
      "Ġred": 6945,
      "Ġurutan": 6946,
      "Ġ36": 6947,
      "ĠPadang": 6948,
      "Ġkemana": 6949,
      "ĠPolri": 6950,
      "Ġpake": 6951,
      "ĠKristen": 6952,
      "Ġnafsu": 6953,
      "Ġcoklat": 6954,
      "Ġtahunan": 6955,
      "Ġpenerimaan": 6956,
      "ĠStore": 6957,
      "Ġph": 6958,
      "Pem": 6959,
      "Ġmelengkapi": 6960,
      "ĠPalembang": 6961,
      "ĠJoko": 6962,
      "Ġpengeluaran": 6963,
      "Ġpengembalian": 6964,
      "Ġkuota": 6965,
      "Ġkemb": 6966,
      "omodasi": 6967,
      "ĠKelebihan": 6968,
      "Ġmelaporkan": 6969,
      "ĠDew": 6970,
      "ĠTerk": 6971,
      "Ġuser": 6972,
      "Ġliga": 6973,
      "ĠBus": 6974,
      "ĠMu": 6975,
      "Ġkelak": 6976,
      "ĠBlu": 6977,
      "Ġpenginapan": 6978,
      "ihi": 6979,
      "wasan": 6980,
      "Ġdicapai": 6981,
      "Ġoperator": 6982,
      "Ġterlepas": 6983,
      "Ġprioritas": 6984,
      "io": 6985,
      "Ġistrinya": 6986,
      "Ġdiingat": 6987,
      "Ġskala": 6988,
      "ĠMelihat": 6989,
      "acun": 6990,
      "Ġputaran": 6991,
      "ox": 6992,
      "Ġalum": 6993,
      "Ġrec": 6994,
      "ejahteraan": 6995,
      "Ġtingg": 6996,
      "Ġkonsentrasi": 6997,
      "Ġdibahas": 6998,
      "29": 6999,
      "Ġdiisi": 7000,
      "Ġdikutip": 7001,
      "ĠVal": 7002,
      "empro": 7003,
      "rika": 7004,
      "Jadi": 7005,
      "emani": 7006,
      "ĠKej": 7007,
      "Ġbitcoin": 7008,
      "Ġmengembalikan": 7009,
      "ĠMenjadi": 7010,
      "Ġbumbu": 7011,
      "Dan": 7012,
      "ĠTerlebih": 7013,
      "Ġinstansi": 7014,
      "ove": 7015,
      "27": 7016,
      "arto": 7017,
      "Ġkriteria": 7018,
      "erdekaan": 7019,
      "ribadian": 7020,
      "ĠStasiun": 7021,
      "Ġmode": 7022,
      "pool": 7023,
      "ĠMenc": 7024,
      "Ġdri": 7025,
      "Ġbandingkan": 7026,
      "Ġbusana": 7027,
      "Ġmengu": 7028,
      "Ġrumit": 7029,
      "Ġmenempel": 7030,
      "!âĢĿ": 7031,
      "ĠTI": 7032,
      "Ġmendirikan": 7033,
      "Ġberalih": 7034,
      "ĠChelsea": 7035,
      "Ġkelemahan": 7036,
      "Ġsimbol": 7037,
      "Ġsilakan": 7038,
      "akwa": 7039,
      "Ġmenunjang": 7040,
      "Ġbeker": 7041,
      "aib": 7042,
      "adak": 7043,
      "Ġcuci": 7044,
      "Ġorder": 7045,
      "ĠMasjid": 7046,
      "Ġbertugas": 7047,
      "hu": 7048,
      "Ġfurniture": 7049,
      "ĠJual": 7050,
      "33": 7051,
      "Ġdipimpin": 7052,
      "olehkan": 7053,
      "Ġlulusan": 7054,
      "pet": 7055,
      "Ġmanajer": 7056,
      "Ġreaksi": 7057,
      "26": 7058,
      "Ġkeju": 7059,
      "ebalan": 7060,
      "Ġhadits": 7061,
      "Ġmengejar": 7062,
      "ĠVideo": 7063,
      "usikan": 7064,
      "Har": 7065,
      "Ġpower": 7066,
      "Ġmemperkenalkan": 7067,
      "ĠSakit": 7068,
      "Ġmencatat": 7069,
      "ĠAwalnya": 7070,
      "ĠMag": 7071,
      "Ġref": 7072,
      "Ġmenunjukan": 7073,
      "ĠBanjar": 7074,
      "Ġditanya": 7075,
      "ealer": 7076,
      "Ġsekadar": 7077,
      "unkan": 7078,
      "ulunya": 7079,
      "Ġkasar": 7080,
      "ĠPNS": 7081,
      "Ġpersis": 7082,
      "Ġjan": 7083,
      "ĠSan": 7084,
      "ampau": 7085,
      "kas": 7086,
      "Ġfenomena": 7087,
      "Ġperson": 7088,
      "jubkan": 7089,
      "oucher": 7090,
      "Ġpengurus": 7091,
      "Ġport": 7092,
      "etapan": 7093,
      "Ġperjanjian": 7094,
      "sian": 7095,
      "ĠOS": 7096,
      "Ġcomp": 7097,
      "Ġseminar": 7098,
      "ombongan": 7099,
      "ondok": 7100,
      "Ġcream": 7101,
      "Ġtempatnya": 7102,
      "Ġformal": 7103,
      "Ġekor": 7104,
      "Ġ2007": 7105,
      "Ġditujukan": 7106,
      "Ġdinam": 7107,
      "Ġerat": 7108,
      "Ġvs": 7109,
      "Ġterbarunya": 7110,
      "Ġmelanggar": 7111,
      "ĠHidup": 7112,
      "Ġditinggal": 7113,
      "ĠPark": 7114,
      "JS": 7115,
      "EG": 7116,
      "Ġoperasional": 7117,
      "eni": 7118,
      "ĠKl": 7119,
      "ĠBanten": 7120,
      "Ġterhindar": 7121,
      "Ġtajam": 7122,
      "Ġnanah": 7123,
      "ĠAgama": 7124,
      "ĠBerbeda": 7125,
      "Ġderajat": 7126,
      "Ġberumur": 7127,
      "ĠRos": 7128,
      "irus": 7129,
      "ĠHad": 7130,
      "Ġdipr": 7131,
      "Ġsayur": 7132,
      "erat": 7133,
      "Ġsim": 7134,
      "ĠRakyat": 7135,
      "ontok": 7136,
      "Ġbertahun": 7137,
      "iki": 7138,
      "uro": 7139,
      "OT": 7140,
      "Ġbibit": 7141,
      "ĠAyam": 7142,
      "Ġdikelola": 7143,
      "ĠWhats": 7144,
      "Ġdipasang": 7145,
      "timbang": 7146,
      "ejakulasi": 7147,
      "ĠSK": 7148,
      "ĠCaranya": 7149,
      "Ġtali": 7150,
      "yawa": 7151,
      "Ġobyek": 7152,
      "Ġtat": 7153,
      "ĠJenderal": 7154,
      "ĠIngat": 7155,
      "Ġserat": 7156,
      "Ġmelebihi": 7157,
      "ĠKy": 7158,
      "ĠMon": 7159,
      "kripsi": 7160,
      "Ġmulia": 7161,
      "Ġterpaksa": 7162,
      "astra": 7163,
      "ilm": 7164,
      "Ġsurga": 7165,
      "efinisi": 7166,
      "Ġpengolahan": 7167,
      "Ġrupa": 7168,
      "ĠPrab": 7169,
      "Ġperlengkapan": 7170,
      "udik": 7171,
      "Ġucap": 7172,
      "Ġolah": 7173,
      "ĠPor": 7174,
      "ella": 7175,
      "Ġmemadai": 7176,
      "indo": 7177,
      "Ġterhubung": 7178,
      "Ġbend": 7179,
      "ventu": 7180,
      "Ġberencana": 7181,
      "Ġliar": 7182,
      "ARTA": 7183,
      "Si": 7184,
      "ĠHindari": 7185,
      "ĠBatam": 7186,
      "Ġrute": 7187,
      "tin": 7188,
      "tawan": 7189,
      "Ġmenaik": 7190,
      "Ġkonstruksi": 7191,
      "Ġtukang": 7192,
      "Ġmengeks": 7193,
      "Ġmm": 7194,
      "Ġmendaftarkan": 7195,
      "Ġperumahan": 7196,
      "Ġpemilih": 7197,
      "emangat": 7198,
      "Ġmoral": 7199,
      "erjaan": 7200,
      "AC": 7201,
      "ĠSuatu": 7202,
      "ĠInternasional": 7203,
      "Ġfase": 7204,
      "ĠKarya": 7205,
      "Ġkebun": 7206,
      "ĠIP": 7207,
      "Ġproduktif": 7208,
      "Ġkedatangan": 7209,
      "Ġmarketing": 7210,
      "Ġkacang": 7211,
      "Ġpengec": 7212,
      "Ġandalan": 7213,
      "Ġdisip": 7214,
      "alaikat": 7215,
      "Ġhamba": 7216,
      "MD": 7217,
      "Ġmenand": 7218,
      "Ġnasib": 7219,
      "isir": 7220,
      "onomian": 7221,
      "Ġapartemen": 7222,
      "Ġrez": 7223,
      "Ġboc": 7224,
      "buang": 7225,
      "Ġtra": 7226,
      "Ġmengund": 7227,
      "ĠPos": 7228,
      "ĠPurw": 7229,
      "Ġdimensi": 7230,
      "eteksi": 7231,
      "ĠBuah": 7232,
      "Ġterganggu": 7233,
      "untansi": 7234,
      "tem": 7235,
      "Ġ2000": 7236,
      "ING": 7237,
      "able": 7238,
      "ĠMay": 7239,
      "ahagiaan": 7240,
      "Ġsebutan": 7241,
      "Ġmenakjubkan": 7242,
      "ding": 7243,
      "Ġrent": 7244,
      "Ġinti": 7245,
      "ampingi": 7246,
      "atin": 7247,
      "usinya": 7248,
      "Ġberolahraga": 7249,
      "Ġlurus": 7250,
      "Ġdirumah": 7251,
      "versi": 7252,
      "emikian": 7253,
      "adium": 7254,
      "Ġbakat": 7255,
      "Ġren": 7256,
      "Ġmelepaskan": 7257,
      "ambi": 7258,
      "uansa": 7259,
      "ĠEs": 7260,
      "Ġmenemui": 7261,
      "kandung": 7262,
      "banyak": 7263,
      "jaan": 7264,
      "55": 7265,
      "orium": 7266,
      "Ġkuda": 7267,
      "olok": 7268,
      "Ġrela": 7269,
      "Ġmac": 7270,
      "Ġkekasih": 7271,
      "Ġupacara": 7272,
      "itr": 7273,
      "omotif": 7274,
      "Ġkegagalan": 7275,
      "ĠInter": 7276,
      "ifi": 7277,
      "inder": 7278,
      "Ġkonser": 7279,
      "Ġjanji": 7280,
      "Ġlainya": 7281,
      "Ġmenjauh": 7282,
      "ebus": 7283,
      "wat": 7284,
      "Ġraksasa": 7285,
      "Ġtawarkan": 7286,
      "Ġrajin": 7287,
      "Ġyuk": 7288,
      "Ġantusias": 7289,
      "Ġkesimpulan": 7290,
      "Ġhead": 7291,
      "Ġbersikap": 7292,
      "Ġgram": 7293,
      "Ġdisiplin": 7294,
      "Ġlibur": 7295,
      "hh": 7296,
      "Ġsensit": 7297,
      "esifik": 7298,
      "Ġsebentar": 7299,
      "Ġrepot": 7300,
      "Ġiman": 7301,
      "ĠCont": 7302,
      "Ġmenyerahkan": 7303,
      "essi": 7304,
      "Ġpergerakan": 7305,
      "Ġmenjabat": 7306,
      "Ġsam": 7307,
      "Ġberpendapat": 7308,
      "ĠNusantara": 7309,
      "ĠYus": 7310,
      "Ġbentuknya": 7311,
      "Ġhadapan": 7312,
      "Ġejakulasi": 7313,
      "imbangan": 7314,
      "wayat": 7315,
      "Ġnenek": 7316,
      "ehehe": 7317,
      "ĠGambar": 7318,
      "Ġner": 7319,
      "Ġngga": 7320,
      "Ġakar": 7321,
      "ĠâĢĶ": 7322,
      "infeksi": 7323,
      "Selain": 7324,
      "ĠKepulauan": 7325,
      "Ġmenjanjikan": 7326,
      "erdasan": 7327,
      "Ġklasemen": 7328,
      "Ġitem": 7329,
      "oter": 7330,
      "Ġinform": 7331,
      "apaian": 7332,
      "Ġjeruk": 7333,
      "yataannya": 7334,
      "Ġketinggalan": 7335,
      "roke": 7336,
      "cam": 7337,
      "Ġmenuliskan": 7338,
      "Ġkompetensi": 7339,
      "Ġditemui": 7340,
      "rim": 7341,
      "Ġberi": 7342,
      "Ġtertawa": 7343,
      "Ġgan": 7344,
      "Ġtuntutan": 7345,
      "Ġkantong": 7346,
      "org": 7347,
      "Ġmatanya": 7348,
      "dalam": 7349,
      "ĠHD": 7350,
      "ackpot": 7351,
      "ĠHa": 7352,
      "ĠPember": 7353,
      "Ġgur": 7354,
      "Ġpassword": 7355,
      "ene": 7356,
      "kitab": 7357,
      "aria": 7358,
      "pes": 7359,
      "amankan": 7360,
      "Ġdiajak": 7361,
      "ego": 7362,
      "ĠCoba": 7363,
      "azada": 7364,
      "ĠKetiga": 7365,
      "ĠSebaliknya": 7366,
      "onan": 7367,
      "Ġagenda": 7368,
      "Ġaslinya": 7369,
      "oyal": 7370,
      "Ġala": 7371,
      "akang": 7372,
      "rak": 7373,
      "Ġungkapnya": 7374,
      "Ġburuh": 7375,
      "Menurut": 7376,
      "Ġmanfaatnya": 7377,
      "imbah": 7378,
      "Ġmengumumkan": 7379,
      "Ġdistributor": 7380,
      "ĠBUM": 7381,
      "Ġpanggung": 7382,
      "Ġkesepakatan": 7383,
      "rosoft": 7384,
      "imalis": 7385,
      "Ġkencang": 7386,
      "zuki": 7387,
      "ĠMax": 7388,
      "angsang": 7389,
      "Ġvolume": 7390,
      "ingkungan": 7391,
      "sungguh": 7392,
      "Ġtunt": 7393,
      "jana": 7394,
      "ĠKutil": 7395,
      "ĠIbnu": 7396,
      "idaya": 7397,
      "Ġvital": 7398,
      "Ġend": 7399,
      "Ġlogo": 7400,
      "Ġmasker": 7401,
      "ele": 7402,
      "Ġasupan": 7403,
      "ye": 7404,
      "ĠServ": 7405,
      "Ġkolesterol": 7406,
      "ĠDar": 7407,
      "Ġnar": 7408,
      "Ġmula": 7409,
      "Ġberpotensi": 7410,
      "Ġsiapkan": 7411,
      "Ġpoint": 7412,
      "cita": 7413,
      "ĠLagu": 7414,
      "ĠPul": 7415,
      "ĠKeber": 7416,
      "ĠRasa": 7417,
      "ĠLiver": 7418,
      "ĠBulan": 7419,
      "Ġtabel": 7420,
      "Ġgrafis": 7421,
      "Ġdius": 7422,
      "ewakan": 7423,
      "Ġvoucher": 7424,
      "Ġlaba": 7425,
      "ĠTravel": 7426,
      "Ġkeberuntungan": 7427,
      "lish": 7428,
      "Ġover": 7429,
      "ĉĊ": 7430,
      "ĠNT": 7431,
      "Ġwawasan": 7432,
      "Ġbetting": 7433,
      "Ġklin": 7434,
      "Ar": 7435,
      "ĠWorld": 7436,
      "Ġkena": 7437,
      "ĠPemk": 7438,
      "Ġwartawan": 7439,
      "Ġhat": 7440,
      "Ġmenyerah": 7441,
      "Ġbelakangan": 7442,
      "ĠLihat": 7443,
      "ernaan": 7444,
      "ĠTour": 7445,
      "ungkus": 7446,
      "ĠðŁĻ": 7447,
      "Ġmengurus": 7448,
      "Ġpembentukan": 7449,
      "Ġdirimu": 7450,
      "ito": 7451,
      "mur": 7452,
      "omat": 7453,
      "70": 7454,
      "ĠSak": 7455,
      "mem": 7456,
      "ĠKamar": 7457,
      "Ġseter": 7458,
      "ungsinya": 7459,
      "ĠAdmin": 7460,
      "Ġberfikir": 7461,
      "Ġsw": 7462,
      "Ġbangkit": 7463,
      "Ġberlibur": 7464,
      "ĠPenggunaan": 7465,
      "Ġjajaran": 7466,
      "etuj": 7467,
      "Ġisinya": 7468,
      "Ġeng": 7469,
      "ĠKek": 7470,
      "DA": 7471,
      "Ġsensasi": 7472,
      "esaran": 7473,
      "Ġekonom": 7474,
      "Ġkerana": 7475,
      "Ġramuan": 7476,
      "ĠYun": 7477,
      "Ġbuj": 7478,
      "ailand": 7479,
      "ĠPerb": 7480,
      "100": 7481,
      "encan": 7482,
      "editasi": 7483,
      "itam": 7484,
      "elajah": 7485,
      "seb": 7486,
      "Ġriwayat": 7487,
      "rik": 7488,
      "Ġu": 7489,
      "Ġmencuri": 7490,
      "?\"": 7491,
      "Ġdiganti": 7492,
      "ĠRob": 7493,
      "Ġpengu": 7494,
      "Ġbekerjasama": 7495,
      "ĠPrediksi": 7496,
      "Ġsenyum": 7497,
      "ĠChampi": 7498,
      "Ġsper": 7499,
      "peng": 7500,
      "Ġspesifik": 7501,
      "Ġmenutupi": 7502,
      "Ġdisimpan": 7503,
      "UAN": 7504,
      "Ġdira": 7505,
      "Ġketimbang": 7506,
      "ibah": 7507,
      "umas": 7508,
      "ean": 7509,
      "ĠId": 7510,
      "Ġmatematika": 7511,
      "Ġsofa": 7512,
      "Ġpenulisan": 7513,
      "ĠResep": 7514,
      "ĠPanc": 7515,
      "Ġditangani": 7516,
      "Ġkeputihan": 7517,
      "ĠPrancis": 7518,
      "35": 7519,
      "Ġdijamin": 7520,
      "ĠTK": 7521,
      "Ġberlari": 7522,
      "ultan": 7523,
      "ordin": 7524,
      "niat": 7525,
      "ubuk": 7526,
      "Ġgelas": 7527,
      "Ġpertahanan": 7528,
      "vitas": 7529,
      "AKARTA": 7530,
      "Ġkesejahteraan": 7531,
      "rastruktur": 7532,
      "Ġpengganti": 7533,
      "Ġlemari": 7534,
      "Ġwajahnya": 7535,
      "Ġlebaran": 7536,
      "Ġfans": 7537,
      "Ġgubernur": 7538,
      "Ġterkej": 7539,
      "ley": 7540,
      "arget": 7541,
      "Ġlengan": 7542,
      "Ġmenyakit": 7543,
      "ĠEfek": 7544,
      "Ġmematikan": 7545,
      "onjol": 7546,
      "Ġevaluasi": 7547,
      "Ġbiarkan": 7548,
      "Ġereksi": 7549,
      "Ġpemilu": 7550,
      "ĠGejala": 7551,
      "Ġberes": 7552,
      "Ġjati": 7553,
      "Ġbooking": 7554,
      "Ġras": 7555,
      "Ġdilarang": 7556,
      "ĠPenyebab": 7557,
      "Ġpeta": 7558,
      "TE": 7559,
      "TS": 7560,
      "bungan": 7561,
      "ĠTerb": 7562,
      "Ġgelombang": 7563,
      "ĠSand": 7564,
      "GA": 7565,
      "Ġcowok": 7566,
      "Ġpengawasan": 7567,
      "Ġsetara": 7568,
      "eur": 7569,
      "Ġganda": 7570,
      "ikkan": 7571,
      "ĠKebanyakan": 7572,
      "Ind": 7573,
      "Ġberkons": 7574,
      "ĠJepara": 7575,
      "Ġberminat": 7576,
      "Ġtablet": 7577,
      "ukis": 7578,
      "ĠPembangunan": 7579,
      "ĠGunakan": 7580,
      "Ġekstr": 7581,
      "empurn": 7582,
      "ĠPaling": 7583,
      "Ġrelev": 7584,
      "Ġserba": 7585,
      "alk": 7586,
      "Ġskill": 7587,
      "Mem": 7588,
      "Ġkeram": 7589,
      "36": 7590,
      "ĠSekali": 7591,
      "Ġaroma": 7592,
      "Ġtahunnya": 7593,
      "Ġmengklaim": 7594,
      "ĠAngka": 7595,
      "ĠGereja": 7596,
      "ĠLokasi": 7597,
      "Ġproduknya": 7598,
      "antis": 7599,
      "Ġdinikmati": 7600,
      "ĠPin": 7601,
      "nam": 7602,
      "Ġmembesar": 7603,
      "Ġtuanya": 7604,
      "Ġmendalam": 7605,
      "Ġkebudayaan": 7606,
      "Ġlambung": 7607,
      "Ġplus": 7608,
      "Ġindikator": 7609,
      "ĠÙ": 7610,
      "back": 7611,
      "ĠKak": 7612,
      "karena": 7613,
      "entangan": 7614,
      "Ġgua": 7615,
      "Pro": 7616,
      "ĠDepok": 7617,
      "Ġditambahkan": 7618,
      "Ġlogin": 7619,
      "Ġternama": 7620,
      "ĠTiongkok": 7621,
      "Ġsemester": 7622,
      "Ġkepribadian": 7623,
      "Ġmembahayakan": 7624,
      "amaah": 7625,
      "Ġdipengaruhi": 7626,
      "madiyah": 7627,
      "alap": 7628,
      "reasi": 7629,
      "Ġpisang": 7630,
      "Ġalergi": 7631,
      "awang": 7632,
      "Ġkalori": 7633,
      "Ġkebakaran": 7634,
      "Ġkebahagiaan": 7635,
      "Ġdugaan": 7636,
      "Ġmenggelar": 7637,
      "aptasi": 7638,
      "Ġwith": 7639,
      "iayaan": 7640,
      "nai": 7641,
      "sil": 7642,
      "Ġsayangnya": 7643,
      "sity": 7644,
      "Ġkonteks": 7645,
      "Ġjalanan": 7646,
      "agen": 7647,
      "Ġpencernaan": 7648,
      "Ġpensiun": 7649,
      "ĠPus": 7650,
      "Ġwawancara": 7651,
      "Ġsendirian": 7652,
      "older": 7653,
      "Ġpenyembuhan": 7654,
      "Ġdef": 7655,
      "ĠCS": 7656,
      "Ġketinggian": 7657,
      "Ġbelas": 7658,
      "tanda": 7659,
      "Ġmenyusui": 7660,
      "Ġnan": 7661,
      "Ġkeman": 7662,
      "enak": 7663,
      "Ġditempatkan": 7664,
      "ĠUd": 7665,
      "Ġmerokok": 7666,
      "embunyi": 7667,
      "faatan": 7668,
      "aper": 7669,
      "ĠLiverpool": 7670,
      "Ġtekstur": 7671,
      "Ġline": 7672,
      "IL": 7673,
      "Ġbad": 7674,
      "Ġdihadapi": 7675,
      "ole": 7676,
      "Ġtunai": 7677,
      "ĠDisini": 7678,
      "ĠSH": 7679,
      "Ġtuh": 7680,
      "Ġaf": 7681,
      "Ġbaginya": 7682,
      "Ġsik": 7683,
      "obrol": 7684,
      "umpa": 7685,
      "aritas": 7686,
      "ĠFoto": 7687,
      "Ġkuno": 7688,
      "inaan": 7689,
      "Ġmencuci": 7690,
      "Ġtentara": 7691,
      "ĠJl": 7692,
      "Ġmineral": 7693,
      "arannya": 7694,
      "Ġinduk": 7695,
      "ĠMau": 7696,
      "eser": 7697,
      "ĠSP": 7698,
      "Ġprofit": 7699,
      "ative": 7700,
      "ĠAtas": 7701,
      "onore": 7702,
      "ensif": 7703,
      "Ġhun": 7704,
      "Ġbir": 7705,
      "isis": 7706,
      "engahan": 7707,
      "istensi": 7708,
      "metik": 7709,
      "Ġbudget": 7710,
      "bayar": 7711,
      "Ġturnamen": 7712,
      "Ġmajalah": 7713,
      "Ġtanam": 7714,
      "ASI": 7715,
      "Ġberenang": 7716,
      "ĠSungai": 7717,
      "Ġcak": 7718,
      "Ġbersedia": 7719,
      "Ġtiada": 7720,
      "Ġanjing": 7721,
      "ĠWebsite": 7722,
      "Ġberkumpul": 7723,
      "Ġlaku": 7724,
      "tiga": 7725,
      "ĠAlhamdulillah": 7726,
      "Ġresolusi": 7727,
      "tib": 7728,
      "Ġketemu": 7729,
      "Ġkebebasan": 7730,
      "adz": 7731,
      "Ġsty": 7732,
      "ĠWidodo": 7733,
      "Ġmisteri": 7734,
      "Ġkonsultasi": 7735,
      "Ġnot": 7736,
      "ĠTe": 7737,
      "Ġlong": 7738,
      "minal": 7739,
      "Ġresp": 7740,
      "Ġradio": 7741,
      "Ġzona": 7742,
      "Ġmasak": 7743,
      "upun": 7744,
      "ky": 7745,
      "ĠDapat": 7746,
      "Ġtour": 7747,
      "77": 7748,
      "Ġmengecek": 7749,
      "Ġterinfeksi": 7750,
      "Ad": 7751,
      "Ġsertifikat": 7752,
      "sun": 7753,
      "Ġberkas": 7754,
      "ĠMetode": 7755,
      "jem": 7756,
      "ĠMil": 7757,
      "ĠOt": 7758,
      "Ġbener": 7759,
      "Ġmempromosikan": 7760,
      "ĠEv": 7761,
      "Ġmeluncurkan": 7762,
      "ĠRek": 7763,
      "agama": 7764,
      "asy": 7765,
      "ĠSIM": 7766,
      "Ġpraktik": 7767,
      "Ġmic": 7768,
      "ror": 7769,
      "Ġberniat": 7770,
      "Ġnaskah": 7771,
      "ĠDo": 7772,
      "ĠForm": 7773,
      "Ð¸": 7774,
      "Ġdemokrasi": 7775,
      "Ġtest": 7776,
      "indung": 7777,
      "Ġbeton": 7778,
      "Ġberlanjut": 7779,
      "shop": 7780,
      "Ġberlalu": 7781,
      "Ġnada": 7782,
      "Ġbenjolan": 7783,
      "gu": 7784,
      "Ġretur": 7785,
      "Ġdgn": 7786,
      "ĠDib": 7787,
      "Karena": 7788,
      "Ġbuy": 7789,
      "Ġdiaplikasikan": 7790,
      "Ġmenyewa": 7791,
      "ĠPemilu": 7792,
      "alapak": 7793,
      "Ġjaket": 7794,
      "ire": 7795,
      "ambilan": 7796,
      "OG": 7797,
      "mata": 7798,
      "Ġsosialisasi": 7799,
      "ĠWalikota": 7800,
      "Ġmenghadiri": 7801,
      "ĠLo": 7802,
      "enci": 7803,
      "Ġperekonomian": 7804,
      "ahi": 7805,
      "ĠSAW": 7806,
      "ĠRup": 7807,
      "iaan": 7808,
      "ĠNilai": 7809,
      "que": 7810,
      "Ġbaja": 7811,
      "Ġmenggantikan": 7812,
      "Ġdipandang": 7813,
      "Ġdanau": 7814,
      "ĠLembaga": 7815,
      "Ġbukit": 7816,
      "Ġgerak": 7817,
      "ĠPoint": 7818,
      "ĠBentuk": 7819,
      "ĠWalau": 7820,
      "ĠAPB": 7821,
      "Ġterlambat": 7822,
      "pu": 7823,
      "Ġtemen": 7824,
      "arch": 7825,
      "gabungkan": 7826,
      "Ġplayer": 7827,
      "Ġjawabannya": 7828,
      "ĠðŁĻĤ": 7829,
      "ĠAsli": 7830,
      "Ġseterusnya": 7831,
      "ilbab": 7832,
      "Ġberbahan": 7833,
      "Ġsabun": 7834,
      "ĠBidang": 7835,
      "ajang": 7836,
      "Ġasp": 7837,
      "urit": 7838,
      "ĠThailand": 7839,
      "ĠPremi": 7840,
      "Ġpencegahan": 7841,
      "Ġpakar": 7842,
      "Ġmemf": 7843,
      "Ġhel": 7844,
      "OD": 7845,
      "angannya": 7846,
      "ĠKeluarga": 7847,
      "ĠSosial": 7848,
      "pergian": 7849,
      "Ġsatuan": 7850,
      "ĠNi": 7851,
      "Ya": 7852,
      "adapan": 7853,
      "ĠAL": 7854,
      "ĠHampir": 7855,
      "orokan": 7856,
      "Ġkaret": 7857,
      "ĠArs": 7858,
      "Ġ2006": 7859,
      "press": 7860,
      "Ġhandal": 7861,
      "duc": 7862,
      "idasi": 7863,
      "Ġekstra": 7864,
      "entasikan": 7865,
      "Ġpembagian": 7866,
      "under": 7867,
      "anggapi": 7868,
      "ĠDip": 7869,
      "atorium": 7870,
      "Sek": 7871,
      "ulian": 7872,
      "inda": 7873,
      "MP": 7874,
      "ph": 7875,
      "Ġlowongan": 7876,
      "etujui": 7877,
      "Ġunggulan": 7878,
      "Ġsecepat": 7879,
      "ĠHK": 7880,
      "iker": 7881,
      "Ġsempit": 7882,
      "Ġjakarta": 7883,
      "ĠTwitter": 7884,
      "ander": 7885,
      "Ġaq": 7886,
      "ĠSch": 7887,
      "Ġimbang": 7888,
      "ĠMenggunakan": 7889,
      "Ġselamanya": 7890,
      "Meng": 7891,
      "Ġberlatih": 7892,
      "Ġsimple": 7893,
      "UP": 7894,
      "ĠMesir": 7895,
      "ĠKadang": 7896,
      "apannya": 7897,
      "asio": 7898,
      "ede": 7899,
      "Ġsifatnya": 7900,
      "Ġditangkap": 7901,
      "Ġteam": 7902,
      "Ġlegal": 7903,
      "lay": 7904,
      "GP": 7905,
      "Ġkub": 7906,
      "ebunan": 7907,
      "otanya": 7908,
      "Ġsenyawa": 7909,
      "Ġdianj": 7910,
      "ĠDokter": 7911,
      "Ġtemannya": 7912,
      "ĠOrgan": 7913,
      "Ġ%": 7914,
      "ager": 7915,
      "Ġketak": 7916,
      "ĠLen": 7917,
      "Ġpembukaan": 7918,
      "ĠChampions": 7919,
      "undur": 7920,
      "Ġpupuk": 7921,
      "Ġbegini": 7922,
      "ĠPutih": 7923,
      "etahu": 7924,
      "Ġdiraih": 7925,
      "Ġmikro": 7926,
      "manen": 7927,
      "nel": 7928,
      "ĠBengk": 7929,
      "alif": 7930,
      "Ġmini": 7931,
      "Ġsemula": 7932,
      "unculan": 7933,
      "Ġtembak": 7934,
      "Ġpedas": 7935,
      "Ġundang": 7936,
      "ĠRa": 7937,
      "ĠBenar": 7938,
      "ĠKau": 7939,
      "Ã¢": 7940,
      "Ġrib": 7941,
      "ohol": 7942,
      "ape": 7943,
      "Ġdianjurkan": 7944,
      "bukan": 7945,
      "lass": 7946,
      "BC": 7947,
      "Ġterkejut": 7948,
      "ĠSmartphone": 7949,
      "ĠAsian": 7950,
      "eluk": 7951,
      "ĠPekerja": 7952,
      "Ġpenerima": 7953,
      "ĠMac": 7954,
      "Ġmemuat": 7955,
      "Ġpembers": 7956,
      "ikalau": 7957,
      "Ġrobot": 7958,
      "artisipasi": 7959,
      "ĠKlik": 7960,
      "lawan": 7961,
      "Ġmenatap": 7962,
      "ĠDownload": 7963,
      "**": 7964,
      "Ġwujud": 7965,
      "opedia": 7966,
      "ĠCasino": 7967,
      "num": 7968,
      "ehan": 7969,
      "Ġlogam": 7970,
      "Apa": 7971,
      "Ġharapkan": 7972,
      "Ġsidang": 7973,
      "Ġberganti": 7974,
      "Ġmenyal": 7975,
      "Peng": 7976,
      "arab": 7977,
      "ĠBersama": 7978,
      "Ġtersisa": 7979,
      "ime": 7980,
      "ompa": 7981,
      "ĠMilan": 7982,
      "ĠTri": 7983,
      "Ġpasca": 7984,
      "ĠIkan": 7985,
      "Ġmanapun": 7986,
      "Ġraga": 7987,
      "Ġmenghubungkan": 7988,
      "Ġamal": 7989,
      "ĠCr": 7990,
      "ĠKud": 7991,
      "Ġalih": 7992,
      "esis": 7993,
      "ĠForex": 7994,
      "endaknya": 7995,
      "ĠRead": 7996,
      "lang": 7997,
      "ĠMata": 7998,
      "Ġhidung": 7999,
      "Namun": 8000,
      "ĠSiswa": 8001,
      "ĠManado": 8002,
      "Ġinteraksi": 8003,
      "ĠBudi": 8004,
      "ĠMA": 8005,
      "orn": 8006,
      "rama": 8007,
      "Ġsya": 8008,
      "luas": 8009,
      "Ġmark": 8010,
      "ĠTemukan": 8011,
      "ilainya": 8012,
      "ĠUmumnya": 8013,
      "Ġpusing": 8014,
      "ĠTerkadang": 8015,
      "str": 8016,
      "ĠOff": 8017,
      "Ġmenjalin": 8018,
      "olongan": 8019,
      "Ġinfrastruktur": 8020,
      "Ġmengusung": 8021,
      "ĠPrabowo": 8022,
      "Ġmedan": 8023,
      "ĠYuk": 8024,
      "ĠEkonomi": 8025,
      "Ġrupanya": 8026,
      "Ġmengatas": 8027,
      "ĠEng": 8028,
      "Ġkomisi": 8029,
      "ĠAman": 8030,
      "Ø§": 8031,
      "Ġvariabel": 8032,
      "Ġbesok": 8033,
      "ĠMerah": 8034,
      "Ġjualan": 8035,
      "Ġdiluncurkan": 8036,
      "satu": 8037,
      "Ġsendirinya": 8038,
      "ARA": 8039,
      "Ġpameran": 8040,
      "awasi": 8041,
      "jin": 8042,
      "Ġdiragukan": 8043,
      "ĠMy": 8044,
      "Ġ250": 8045,
      "Ġformulir": 8046,
      "mudahan": 8047,
      "ĠBRI": 8048,
      "Ġkembang": 8049,
      "isian": 8050,
      "Ġmendownload": 8051,
      "link": 8052,
      "Ġmengendalikan": 8053,
      "abut": 8054,
      "ĠCD": 8055,
      "ujur": 8056,
      "ush": 8057,
      "Ġkecerdasan": 8058,
      "Ġkurir": 8059,
      "ĠSesuai": 8060,
      "ĠBPJS": 8061,
      "ĠUtama": 8062,
      "ĠUr": 8063,
      "Ġbrowser": 8064,
      "Ġpanen": 8065,
      "ĠDim": 8066,
      "Ġmengarah": 8067,
      "48": 8068,
      "Ġher": 8069,
      "Ġmerilis": 8070,
      "Ġdekorasi": 8071,
      "adion": 8072,
      "Ġvisual": 8073,
      "ĠRev": 8074,
      "Ġmengolah": 8075,
      "Ġceritanya": 8076,
      "ĠPerancis": 8077,
      "ject": 8078,
      "enam": 8079,
      "ward": 8080,
      "ĠQn": 8081,
      "anggal": 8082,
      "Ġorganik": 8083,
      "eld": 8084,
      "ĠTurki": 8085,
      "Ġeksternal": 8086,
      "ty": 8087,
      "Ġtype": 8088,
      "ĠUniver": 8089,
      "resh": 8090,
      "Ġdimasukkan": 8091,
      "akwah": 8092,
      "ĠCel": 8093,
      "Ġsurvei": 8094,
      "wakan": 8095,
      "fak": 8096,
      "nik": 8097,
      "ĠMe": 8098,
      "Ġsand": 8099,
      "Ġsepi": 8100,
      "Ġjus": 8101,
      "amanannya": 8102,
      "Ġberjumlah": 8103,
      "spot": 8104,
      "ĠPihak": 8105,
      "Bagi": 8106,
      "ure": 8107,
      "ĠPemuda": 8108,
      "Ġnabi": 8109,
      "Ġpanc": 8110,
      "Ġketu": 8111,
      "ĠMasa": 8112,
      "impah": 8113,
      "Ġmeyakinkan": 8114,
      "Ġkumpulan": 8115,
      "Ġmenonjol": 8116,
      "Ġnikmati": 8117,
      "ante": 8118,
      "Ġrad": 8119,
      "Ġtime": 8120,
      "Ġanalisa": 8121,
      "Ġsenior": 8122,
      "Ġaksesoris": 8123,
      "angkok": 8124,
      "late": 8125,
      "Ġberpartisipasi": 8126,
      "titu": 8127,
      "ĠDana": 8128,
      "ĠSmart": 8129,
      "Ġyo": 8130,
      "!!!": 8131,
      "husus": 8132,
      "Ġ99": 8133,
      "usianya": 8134,
      "vat": 8135,
      "ĠPutri": 8136,
      "Ġberupaya": 8137,
      "ĠHerbal": 8138,
      "Apakah": 8139,
      "Ġberhadapan": 8140,
      "ĠDasar": 8141,
      "mo": 8142,
      "Ġpembicaraan": 8143,
      "entr": 8144,
      "ago": 8145,
      "egrasi": 8146,
      "ĠFC": 8147,
      "Ġutang": 8148,
      "ĠJohn": 8149,
      "ingnya": 8150,
      "Ġtik": 8151,
      "irannya": 8152,
      "ĠBul": 8153,
      "ĠYou": 8154,
      "Ġdiperb": 8155,
      "Ġmainan": 8156,
      "Ġkader": 8157,
      "apas": 8158,
      "Ġutuh": 8159,
      "Ġmenempati": 8160,
      "rang": 8161,
      "unitas": 8162,
      "ĠMbak": 8163,
      "aiknya": 8164,
      "Ġemang": 8165,
      "ĠNa": 8166,
      "Ġimpor": 8167,
      "Ġgagasan": 8168,
      "tumbuh": 8169,
      "Ġpeb": 8170,
      "Ġaktor": 8171,
      "turut": 8172,
      "Ġmengontrol": 8173,
      "Ġdemam": 8174,
      "ĠKelas": 8175,
      "Ġterbagi": 8176,
      "EB": 8177,
      "iaga": 8178,
      "Ġperihal": 8179,
      "ĠUSD": 8180,
      "Ġkurangnya": 8181,
      "Ġtenggorokan": 8182,
      "ĠMicrosoft": 8183,
      "eo": 8184,
      "ecuali": 8185,
      "enggarakan": 8186,
      "Ġinstal": 8187,
      "nama": 8188,
      "buku": 8189,
      "opa": 8190,
      "ily": 8191,
      "interaksi": 8192,
      "RA": 8193,
      "Ġpenjualnya": 8194,
      "Ġkonfirmasi": 8195,
      "Ġpengumuman": 8196,
      "ĠLaut": 8197,
      "Ġgitar": 8198,
      "Ġpipa": 8199,
      "RT": 8200,
      "Ġperbandingan": 8201,
      "Ġkedepan": 8202,
      "Ġberbahasa": 8203,
      "Ġikh": 8204,
      "Ġsebetulnya": 8205,
      "Ġkerjanya": 8206,
      "Ġdamai": 8207,
      "Ġsalam": 8208,
      "Ġpenggunanya": 8209,
      "Ġsperma": 8210,
      "pasar": 8211,
      "emudi": 8212,
      "ĠMur": 8213,
      "Ġhidangan": 8214,
      "Ġkaget": 8215,
      "ĠPersi": 8216,
      "endor": 8217,
      "unungan": 8218,
      "Ġstroke": 8219,
      "Ġterkandung": 8220,
      "Ġberkar": 8221,
      "enai": 8222,
      "Ġkemerdekaan": 8223,
      "Ġpenyanyi": 8224,
      "Pen": 8225,
      "Ġ2004": 8226,
      "upai": 8227,
      "Ġmerata": 8228,
      "Ġlabel": 8229,
      "Ġdiolah": 8230,
      "Hal": 8231,
      "tiap": 8232,
      "Ġsebabnya": 8233,
      "Ġmendatangi": 8234,
      "ĠPembuatan": 8235,
      "Ġpela": 8236,
      "Ġsoalnya": 8237,
      "tera": 8238,
      "bal": 8239,
      "Ġpenambahan": 8240,
      "oney": 8241,
      "arjo": 8242,
      "ĠRuang": 8243,
      "Ġketakutan": 8244,
      "Ġdesign": 8245,
      "Ġbepergian": 8246,
      "Ġsejati": 8247,
      "ĠSerta": 8248,
      "Ġpenyelenggaraan": 8249,
      "ativitas": 8250,
      "itos": 8251,
      "count": 8252,
      "uty": 8253,
      "ĠGaransi": 8254,
      "Ġland": 8255,
      "ĠKamp": 8256,
      "alisasikan": 8257,
      "ĠPekan": 8258,
      "aduan": 8259,
      "HR": 8260,
      "ahaha": 8261,
      "utut": 8262,
      "Ġkursus": 8263,
      "KN": 8264,
      "lic": 8265,
      "Ġrugi": 8266,
      "umput": 8267,
      "entral": 8268,
      "Ġ33": 8269,
      "ĠTingkat": 8270,
      "ze": 8271,
      "ĠWasir": 8272,
      "ĠMengh": 8273,
      "inansial": 8274,
      "Ġeksek": 8275,
      "eller": 8276,
      "ĠGedung": 8277,
      "asila": 8278,
      "PN": 8279,
      "ĠEngk": 8280,
      "ĠCir": 8281,
      "epend": 8282,
      "anjangan": 8283,
      "ĠJad": 8284,
      "Ġmembant": 8285,
      "Ġlist": 8286,
      "ukota": 8287,
      "Ġdisekitar": 8288,
      "Ġpep": 8289,
      "play": 8290,
      "Ġlen": 8291,
      "Ġpenya": 8292,
      "Ġsarankan": 8293,
      "Ġmenghadap": 8294,
      "Jakarta": 8295,
      "irnya": 8296,
      "pura": 8297,
      "Ġcom": 8298,
      "ko": 8299,
      "uasi": 8300,
      "ĠKand": 8301,
      "saya": 8302,
      "Ġpemegang": 8303,
      "utamakan": 8304,
      "ĠAkibatnya": 8305,
      "Ġhancur": 8306,
      "Ġjurnal": 8307,
      "aborasi": 8308,
      "Ġliat": 8309,
      "akso": 8310,
      "ĠUntung": 8311,
      "argetkan": 8312,
      "itakan": 8313,
      "ohong": 8314,
      "bud": 8315,
      "Ġberjualan": 8316,
      "Ġsegalanya": 8317,
      "Ġwaspada": 8318,
      "Ġkepolisian": 8319,
      "Ġprofil": 8320,
      "anjur": 8321,
      "Ġmekanisme": 8322,
      "Ġsensitif": 8323,
      "ayar": 8324,
      "Ġkilometer": 8325,
      "ĠSekretaris": 8326,
      "Ġlimbah": 8327,
      "ĠNet": 8328,
      "Ġmenyerap": 8329,
      "ĠPER": 8330,
      "ĠMuhammadiyah": 8331,
      "ĠJawab": 8332,
      "Ġbatasan": 8333,
      "cess": 8334,
      "win": 8335,
      "Ġberinteraksi": 8336,
      "ormati": 8337,
      "ahuan": 8338,
      "istis": 8339,
      "Ġsms": 8340,
      "ĠTop": 8341,
      "Ġlini": 8342,
      "ĠBantu": 8343,
      "Ġbacaan": 8344,
      "Pr": 8345,
      "ico": 8346,
      "agon": 8347,
      "Ġbon": 8348,
      "ĠTepat": 8349,
      "ĠAD": 8350,
      "Ġtok": 8351,
      "ÑĤ": 8352,
      "ĠâĢ¢": 8353,
      "sem": 8354,
      "Ġmengenali": 8355,
      "Ġbulat": 8356,
      "ehat": 8357,
      "ĠGold": 8358,
      "Ġmengag": 8359,
      "Ġdibantu": 8360,
      "Ġintens": 8361,
      "Ġ....": 8362,
      "ewas": 8363,
      "ĠInfo": 8364,
      "ĠGroup": 8365,
      "ĠDetail": 8366,
      "Ġrentan": 8367,
      "Ġpertengahan": 8368,
      "ĠSegera": 8369,
      "Ġest": 8370,
      "Ġhe": 8371,
      "Ġklaim": 8372,
      "akapan": 8373,
      "ĠTermasuk": 8374,
      "Ġfungsinya": 8375,
      "ĠKomunikasi": 8376,
      "Ġperpustakaan": 8377,
      "Ġmembicarakan": 8378,
      "Ġmembakar": 8379,
      "Ġberkisar": 8380,
      "abang": 8381,
      "ĠES": 8382,
      "ĠTerutama": 8383,
      "Ġtujuannya": 8384,
      "ĠUlasan": 8385,
      "ĠAlam": 8386,
      "ebel": 8387,
      "ĠNy": 8388,
      "90": 8389,
      "Ġpersonal": 8390,
      "epannya": 8391,
      "Ġangkat": 8392,
      "ĠDemikianlah": 8393,
      "Ġsajikan": 8394,
      "ĠBin": 8395,
      "Ġmemelihara": 8396,
      "Ġmemotong": 8397,
      "aining": 8398,
      "Ġanime": 8399,
      "arai": 8400,
      "ĠKun": 8401,
      "Ġmaskapai": 8402,
      "Ġkrisis": 8403,
      "Ġkritis": 8404,
      "ĠJa": 8405,
      "Ġdibiarkan": 8406,
      "Ġpandai": 8407,
      "optim": 8408,
      "Ġacuan": 8409,
      "Ġtercinta": 8410,
      "umbuh": 8411,
      "eling": 8412,
      "Ġsensor": 8413,
      "KB": 8414,
      "Yang": 8415,
      "ĠManajemen": 8416,
      "Ġsedemikian": 8417,
      "akannya": 8418,
      "Ġsuplemen": 8419,
      "Ġpengambilan": 8420,
      "Ġdon": 8421,
      "abung": 8422,
      "ĠStaf": 8423,
      "umpah": 8424,
      "Ġnel": 8425,
      "ilingi": 8426,
      "Ġkutu": 8427,
      "sion": 8428,
      "Ġpremium": 8429,
      "Ġverifikasi": 8430,
      "ĠOm": 8431,
      "Ġberpr": 8432,
      "buahan": 8433,
      "ollow": 8434,
      "Ġanggap": 8435,
      "Ġawet": 8436,
      "icip": 8437,
      "Ġmenampung": 8438,
      "row": 8439,
      "enjang": 8440,
      "Ġtangguh": 8441,
      "otivasi": 8442,
      "ĠSud": 8443,
      "Ġsn": 8444,
      "Ġnom": 8445,
      "gaimanapun": 8446,
      "Ġsambut": 8447,
      "ĠPasti": 8448,
      "Ġinstr": 8449,
      "Ġmenantang": 8450,
      "Ġhehe": 8451,
      "isika": 8452,
      "Ġseimbang": 8453,
      "work": 8454,
      "canya": 8455,
      "ĠMore": 8456,
      "ĠRT": 8457,
      "Ġcon": 8458,
      "Ġfam": 8459,
      "Ġkerjakan": 8460,
      "acak": 8461,
      "ĠSoekar": 8462,
      "imum": 8463,
      "Ġdiubah": 8464,
      "sor": 8465,
      "ĠKulit": 8466,
      "ĠTeman": 8467,
      "Ġmendidik": 8468,
      "atik": 8469,
      "ĠPernah": 8470,
      "ĠWil": 8471,
      "App": 8472,
      "usa": 8473,
      "Ġmendadak": 8474,
      "oleskan": 8475,
      "IF": 8476,
      "ejo": 8477,
      "ferensi": 8478,
      "Ġstress": 8479,
      "dian": 8480,
      "ette": 8481,
      "ahulu": 8482,
      "Ġ1000": 8483,
      "Ġpahlawan": 8484,
      "ĠHi": 8485,
      "Ġpetern": 8486,
      "Ġpej": 8487,
      "dengan": 8488,
      "Ġmemaksa": 8489,
      "Ġsajian": 8490,
      "ĠKelompok": 8491,
      "oratorium": 8492,
      "ekor": 8493,
      "ĠBahwa": 8494,
      "ilikan": 8495,
      "Ġpenjaga": 8496,
      "Ġberlebih": 8497,
      "erajaan": 8498,
      "ĠAfrika": 8499,
      "Ġkomod": 8500,
      "Ġkoperasi": 8501,
      "ĠUniversity": 8502,
      "Ġ>": 8503,
      "ajurit": 8504,
      "Ġprosesor": 8505,
      "ĠDav": 8506,
      "Ġnasabah": 8507,
      "Ġmenekankan": 8508,
      "ĠBandara": 8509,
      "Ġby": 8510,
      "âĢĻ,": 8511,
      "Ġdihitung": 8512,
      "ĠYaitu": 8513,
      "ĠMT": 8514,
      "Ġmelupakan": 8515,
      "Ġasy": 8516,
      "Ġmemunc": 8517,
      "Ġbupati": 8518,
      "Ġhip": 8519,
      "Ġberkes": 8520,
      "Dari": 8521,
      "Ġrombongan": 8522,
      "emuka": 8523,
      "Ġterbit": 8524,
      "Ġmembayangkan": 8525,
      "Ġkeamanannya": 8526,
      "Ġsaldo": 8527,
      "BS": 8528,
      "Ġaktiv": 8529,
      "Ġlamanya": 8530,
      "ĠIV": 8531,
      "ĠRoma": 8532,
      "inggung": 8533,
      "Ġmelarang": 8534,
      "Ġpecah": 8535,
      "Ġdurasi": 8536,
      "Ġdipanggil": 8537,
      "Ġkajian": 8538,
      "ebas": 8539,
      "juk": 8540,
      "Ġekspor": 8541,
      "Ġskrip": 8542,
      "rosir": 8543,
      "Ġpopulasi": 8544,
      "BA": 8545,
      "Ġleb": 8546,
      "ĠTiga": 8547,
      "Ġperbankan": 8548,
      "enjak": 8549,
      "Ġberist": 8550,
      "ĠArsenal": 8551,
      "Ġmemecahkan": 8552,
      "encananya": 8553,
      "Ġbos": 8554,
      "Ġ2005": 8555,
      "Ġpenerapan": 8556,
      "Ġjitu": 8557,
      "Ah": 8558,
      "Ġcobalah": 8559,
      "Ġbaris": 8560,
      "round": 8561,
      "ĠBelajar": 8562,
      "ĠSuzuki": 8563,
      "ĠDid": 8564,
      "Ġcipta": 8565,
      "acking": 8566,
      "aitkan": 8567,
      "Ġrilis": 8568,
      "ongkong": 8569,
      "Ġmengup": 8570,
      "ĠAlasan": 8571,
      "Ġmenempuh": 8572,
      ".....": 8573,
      "Ġmenyangkut": 8574,
      "Ġporsi": 8575,
      "ĠSebagaimana": 8576,
      "Ġregistrasi": 8577,
      "Ġnger": 8578,
      "arinya": 8579,
      "Ġnikah": 8580,
      "Ġparu": 8581,
      "ife": 8582,
      "andan": 8583,
      "Ġtuntas": 8584,
      "Ġfinansial": 8585,
      "Ġpakan": 8586,
      "ehkan": 8587,
      "Ġdisiapkan": 8588,
      "Ġjanin": 8589,
      "'s": 8590,
      "Ġbody": 8591,
      "Ġkarang": 8592,
      "ĠWat": 8593,
      "ogen": 8594,
      "ĠBor": 8595,
      "emput": 8596,
      "ingkah": 8597,
      "ĠBonus": 8598,
      "astian": 8599,
      "adaannya": 8600,
      "Ġmendapatkannya": 8601,
      "Ġtabungan": 8602,
      "ĠPKS": 8603,
      "Ġsingle": 8604,
      "Ġdimakan": 8605,
      "Ġhutang": 8606,
      "Ġkokoh": 8607,
      "pel": 8608,
      "imbingan": 8609,
      "Ġtemui": 8610,
      "Ġakomodasi": 8611,
      "ĠPed": 8612,
      "ancarkan": 8613,
      "ĠBh": 8614,
      "Ġwali": 8615,
      "MS": 8616,
      "Ġtimnya": 8617,
      "ĠKalian": 8618,
      "ĠFungsi": 8619,
      "Ġpop": 8620,
      "ĠBima": 8621,
      "anjak": 8622,
      "ĠNusa": 8623,
      "ancangan": 8624,
      "betul": 8625,
      "Ġtri": 8626,
      "Ġbatuk": 8627,
      "ĠKong": 8628,
      "Ġcair": 8629,
      "CD": 8630,
      "Ð½": 8631,
      "ĠPilkada": 8632,
      "Ġpost": 8633,
      "ĠAmbeien": 8634,
      "%,": 8635,
      "Ġsantri": 8636,
      "PD": 8637,
      "ii": 8638,
      "Ġkenyataannya": 8639,
      "ĠPerjalanan": 8640,
      "Ġternak": 8641,
      "Ġblack": 8642,
      "ĠPenj": 8643,
      "okteran": 8644,
      "ĠKart": 8645,
      "Ġjackpot": 8646,
      "ping": 8647,
      "Ġbujet": 8648,
      "ĠPeserta": 8649,
      "ventus": 8650,
      "ahap": 8651,
      "ĠGreen": 8652,
      "Ġdarat": 8653,
      "Ġmelem": 8654,
      "olik": 8655,
      "ĠCon": 8656,
      "Ġolahan": 8657,
      "Ġbox": 8658,
      "angkangan": 8659,
      "Ġsilam": 8660,
      "Ġpenyebabnya": 8661,
      "lima": 8662,
      "Ġspek": 8663,
      "www": 8664,
      "ĠKari": 8665,
      "Ġpelajari": 8666,
      "Ġdibuktikan": 8667,
      "Ġromantis": 8668,
      "Ġdiman": 8669,
      "izen": 8670,
      "Ġsebulan": 8671,
      "ĠHasilnya": 8672,
      "Salah": 8673,
      "otaan": 8674,
      "utif": 8675,
      "Ġperayaan": 8676,
      "ukisan": 8677,
      "unggah": 8678,
      "Ġkomposisi": 8679,
      "ĠPilihan": 8680,
      "Ġimbuh": 8681,
      "Ġrelevan": 8682,
      "Ġsukai": 8683,
      "Ġkeuntungannya": 8684,
      "ebon": 8685,
      "ĠKalo": 8686,
      "Ġenggan": 8687,
      "ĠTers": 8688,
      "ĠSemuanya": 8689,
      "Ġdirekomendasikan": 8690,
      "Ġmengejutkan": 8691,
      "Ġmemaksimalkan": 8692,
      "Ġkurikulum": 8693,
      "Ġbagai": 8694,
      "ĠSport": 8695,
      "Ġinstagram": 8696,
      "Ġketerl": 8697,
      "Ġgembira": 8698,
      "blog": 8699,
      "Ġkisaran": 8700,
      "uch": 8701,
      "Ġnafas": 8702,
      "Ġstok": 8703,
      "emukakan": 8704,
      "Ġjalannya": 8705,
      "ĠAN": 8706,
      "Ġdituntut": 8707,
      "grasi": 8708,
      "Ġbermasalah": 8709,
      "ĠEngkau": 8710,
      "ungkiri": 8711,
      "Ġberlokasi": 8712,
      "Ġsetting": 8713,
      "ĠQnC": 8714,
      "adanya": 8715,
      "ĠHand": 8716,
      "ohan": 8717,
      "Ġdiselesaikan": 8718,
      "ollar": 8719,
      "ĠSeluruh": 8720,
      "adaban": 8721,
      "lagi": 8722,
      "Ġberan": 8723,
      "Ku": 8724,
      "Ġdosis": 8725,
      "Ġaparat": 8726,
      "incin": 8727,
      "osh": 8728,
      "pt": 8729,
      "panjang": 8730,
      "Ġditur": 8731,
      "Ġnatural": 8732,
      "Ġpermanen": 8733,
      "ĠQu": 8734,
      "Ġapel": 8735,
      "Ġoption": 8736,
      "ĠBerita": 8737,
      "Ġmundur": 8738,
      "Ġmeneg": 8739,
      "ĠUSB": 8740,
      "Ġsembilan": 8741,
      "Ġakademik": 8742,
      "ÑĢ": 8743,
      "Ġsela": 8744,
      "ĠSin": 8745,
      "iber": 8746,
      "Ġmenyerupai": 8747,
      "ĠGel": 8748,
      "Ġrumus": 8749,
      "Ġmanc": 8750,
      "Ġmeminum": 8751,
      "ition": 8752,
      "Ġpertunjukan": 8753,
      "ical": 8754,
      "Ġmengger": 8755,
      "opsi": 8756,
      "imen": 8757,
      "Ġpertaruhan": 8758,
      "Ġwork": 8759,
      "data": 8760,
      "adukan": 8761,
      "ĠSbobet": 8762,
      "Ġtewas": 8763,
      "ĠIndustri": 8764,
      "ujuk": 8765,
      "Ġdiriku": 8766,
      "ikmatan": 8767,
      "Ġmembatasi": 8768,
      "Ġpemainnya": 8769,
      "Ġplanet": 8770,
      "Ġmbak": 8771,
      "Ġkental": 8772,
      "SIS": 8773,
      "Ġpesantren": 8774,
      "Ġtepi": 8775,
      "ĠDel": 8776,
      "Ġmenet": 8777,
      "onfirmasi": 8778,
      "uduki": 8779,
      "ĠOne": 8780,
      "inasikan": 8781,
      "Ġchip": 8782,
      "Ġpinggir": 8783,
      "ĠSaudi": 8784,
      "Ġgawang": 8785,
      "ĠHarus": 8786,
      "elai": 8787,
      "Ġilmuwan": 8788,
      "lusif": 8789,
      "ĠKelurahan": 8790,
      "tick": 8791,
      "Ġtransp": 8792,
      "ĠCerita": 8793,
      "Ġjanganlah": 8794,
      "ĠWon": 8795,
      "ĠUkuran": 8796,
      "ĠLingkungan": 8797,
      "zz": 8798,
      "unikan": 8799,
      "Ġselengkapnya": 8800,
      "Ġdiajarkan": 8801,
      "Ġrap": 8802,
      "ĠLagi": 8803,
      "Ġidentik": 8804,
      "Ġsor": 8805,
      "Ġsaw": 8806,
      "Ġotomotif": 8807,
      "uwangi": 8808,
      "Ġbernilai": 8809,
      "Ġbersemangat": 8810,
      "ipat": 8811,
      "ript": 8812,
      "Ġpagar": 8813,
      "Ġhias": 8814,
      "Ġsiklus": 8815,
      "Ġfleksi": 8816,
      "Ġmenyebarkan": 8817,
      "Ġdirasa": 8818,
      "Ak": 8819,
      "Ġmenanam": 8820,
      "Ġhunian": 8821,
      "ĠPerg": 8822,
      "Ġkurun": 8823,
      "Ġdiajukan": 8824,
      "Ġmemak": 8825,
      "Ġmemul": 8826,
      "Ġtambahnya": 8827,
      "ĠFaktor": 8828,
      "Ġgila": 8829,
      "Ġtertinggal": 8830,
      "ble": 8831,
      "Ġmenaruh": 8832,
      "ĠBang": 8833,
      "Ġkemaluan": 8834,
      "Ġsoci": 8835,
      "yono": 8836,
      "idato": 8837,
      "ajinan": 8838,
      "rumah": 8839,
      "Ġspesies": 8840,
      "uhur": 8841,
      "entak": 8842,
      "ĠâĨ": 8843,
      "intanya": 8844,
      "Ġterin": 8845,
      "naf": 8846,
      "ĠCalon": 8847,
      "ĠPajak": 8848,
      "ency": 8849,
      "Ġmenyuruh": 8850,
      "ĠYahudi": 8851,
      "ahukan": 8852,
      "ongkar": 8853,
      "Ġharuslah": 8854,
      "enarkan": 8855,
      "Ġpengelola": 8856,
      "Banyak": 8857,
      "Ġmalaikat": 8858,
      "Ġra": 8859,
      "ĠCil": 8860,
      "ĠWord": 8861,
      "ĠFir": 8862,
      "Ġhindari": 8863,
      "iskinan": 8864,
      "Ġmengancam": 8865,
      "buk": 8866,
      "Ġbor": 8867,
      "Ġukurannya": 8868,
      "Ġmore": 8869,
      "Ġteliti": 8870,
      "ewaan": 8871,
      "Ġmembela": 8872,
      "Ġsenilai": 8873,
      "Ġmengamati": 8874,
      "ĠJambi": 8875,
      "Ġtambang": 8876,
      "Mu": 8877,
      "ĠAhok": 8878,
      "ĠLantas": 8879,
      "ĠHIV": 8880,
      "Ġalk": 8881,
      "Ġmanfaatkan": 8882,
      "Ġmenimp": 8883,
      "yun": 8884,
      "Ġmiliknya": 8885,
      "Ġdiyak": 8886,
      "ĠMarket": 8887,
      "Ġmenelan": 8888,
      "Ġtruk": 8889,
      "ĠKim": 8890,
      "Ġdisaat": 8891,
      "Ġhakim": 8892,
      "ĠAlex": 8893,
      "Ġself": 8894,
      "ĠSebaiknya": 8895,
      "ĠMr": 8896,
      "esuaian": 8897,
      "ĠBUMN": 8898,
      "rit": 8899,
      "Ġmenyed": 8900,
      "ĠUKM": 8901,
      "entase": 8902,
      "ĠSamp": 8903,
      "anaknya": 8904,
      "Ġmuseum": 8905,
      "Ġmenurutnya": 8906,
      "ensinya": 8907,
      "ĠKudus": 8908,
      "Ġperkiraan": 8909,
      "Ġlanjutan": 8910,
      "asari": 8911,
      "Mer": 8912,
      "alifikasi": 8913,
      "Ġdicoba": 8914,
      "ukupi": 8915,
      "ĠJin": 8916,
      "Ġkontribusi": 8917,
      "ĠDewi": 8918,
      "ĠWal": 8919,
      "Berikut": 8920,
      "Ã©": 8921,
      "Ġteror": 8922,
      "75": 8923,
      "deka": 8924,
      "erm": 8925,
      "Ġpermohonan": 8926,
      "Ġintinya": 8927,
      "Ġsul": 8928,
      "Ġsusunan": 8929,
      "ĠMart": 8930,
      "Ġadegan": 8931,
      "berry": 8932,
      "Ġjaga": 8933,
      "isensi": 8934,
      "Ġshop": 8935,
      "Ġutk": 8936,
      "Ġduit": 8937,
      "Ġdial": 8938,
      "eliharaan": 8939,
      "Ġdealer": 8940,
      "umbuhkan": 8941,
      "Ġkafe": 8942,
      "Ġsilat": 8943,
      "ube": 8944,
      "ovo": 8945,
      "ĠAdalah": 8946,
      "Ġberiman": 8947,
      "Ġpelayan": 8948,
      "Ġkritik": 8949,
      "ĠStar": 8950,
      "Ġtercapai": 8951,
      "ĠTai": 8952,
      "ĠWali": 8953,
      "Ġsembar": 8954,
      "Ġdebu": 8955,
      "Ġkuasa": 8956,
      "Ġkosmetik": 8957,
      "Ġtuturnya": 8958,
      "Ġsusun": 8959,
      "Ġhendaknya": 8960,
      "Ġsembarangan": 8961,
      "Ġoknum": 8962,
      "ario": 8963,
      "Ġdiartikan": 8964,
      "dik": 8965,
      "ĠGus": 8966,
      "Ġdiawali": 8967,
      "Ġmerencanakan": 8968,
      "ĠBunda": 8969,
      "Ġseandainya": 8970,
      "anggul": 8971,
      "Ġtwitter": 8972,
      "Ġret": 8973,
      "abase": 8974,
      "ilet": 8975,
      "incian": 8976,
      "unuhan": 8977,
      "ĠTo": 8978,
      "Ġpengembang": 8979,
      "ĠHp": 8980,
      "akna": 8981,
      "Ġimb": 8982,
      "ĠHid": 8983,
      "ĠNggak": 8984,
      "Ġberistirahat": 8985,
      "Ġmemutar": 8986,
      "ektar": 8987,
      "oki": 8988,
      "embunyikan": 8989,
      "Ġberangg": 8990,
      "Ġhas": 8991,
      "Ġtimnas": 8992,
      "Ġmulus": 8993,
      "acker": 8994,
      "ormatan": 8995,
      "Ġmengukur": 8996,
      "ĠAlkitab": 8997,
      "fungsi": 8998,
      "Ġberdarah": 8999,
      "Ġterwujud": 9000,
      "ĠDaya": 9001,
      "Ġdilansir": 9002,
      "Ġracun": 9003,
      "Ġkenangan": 9004,
      "Ġkualitasnya": 9005,
      "Ġkesibu": 9006,
      "Ġlazim": 9007,
      "Ġmengap": 9008,
      "Ġkad": 9009,
      "ĠDig": 9010,
      "Ġtembok": 9011,
      "antungan": 9012,
      "ĠKecil": 9013,
      "ĠBeliau": 9014,
      "Ġdidasarkan": 9015,
      "saf": 9016,
      "Ġmentah": 9017,
      "Ġdewan": 9018,
      "Ġkunjung": 9019,
      "oyo": 9020,
      "Ġberpindah": 9021,
      "ĠMalam": 9022,
      "Ġperkebunan": 9023,
      "ĠBanyuwangi": 9024,
      "Ġdisusun": 9025,
      "ĠMengingat": 9026,
      "Ġnyar": 9027,
      "Ġmempers": 9028,
      "cl": 9029,
      "Ġcemas": 9030,
      "Ġgabungan": 9031,
      "okia": 9032,
      "ohid": 9033,
      "endaki": 9034,
      "ĠTangan": 9035,
      "Ġpenyebaran": 9036,
      "Ġlapar": 9037,
      "Ġnilainya": 9038,
      "Ġmengarahkan": 9039,
      "ss": 9040,
      "ĠâĨĴ": 9041,
      "ukasi": 9042,
      "alil": 9043,
      "ĠLog": 9044,
      "Ġdiatasi": 9045,
      "ath": 9046,
      "Ġmengaplikasikan": 9047,
      "Ġdefinisi": 9048,
      "ector": 9049,
      "Ġdimaksudkan": 9050,
      "Ġmulti": 9051,
      "Ġberwisata": 9052,
      "Ġabu": 9053,
      "ĠAlami": 9054,
      "ebo": 9055,
      "Ġspot": 9056,
      "ĠÂ»": 9057,
      "Ġkeluaran": 9058,
      "isode": 9059,
      "Ġpatung": 9060,
      "ery": 9061,
      "Ġsetan": 9062,
      "Ġbunuh": 9063,
      "Ġtambahkan": 9064,
      "tifkan": 9065,
      "Ġsolid": 9066,
      "ĠJuventus": 9067,
      "gia": 9068,
      "Ġ75": 9069,
      "Ġlensa": 9070,
      "Ġprob": 9071,
      "Dia": 9072,
      "lebih": 9073,
      "Ġprinter": 9074,
      "ĠNU": 9075,
      "Ġmenghal": 9076,
      "ĠKerajaan": 9077,
      "Ġpsikologis": 9078,
      "Undang": 9079,
      "uaya": 9080,
      "ĠPromo": 9081,
      "Fi": 9082,
      "Tapi": 9083,
      "samaan": 9084,
      "ĠFre": 9085,
      "Ġaudio": 9086,
      "Ġfree": 9087,
      "Ġmenyelenggarakan": 9088,
      "ekal": 9089,
      "ion": 9090,
      "Ġperanan": 9091,
      "Ġbareng": 9092,
      "Ġmelangkah": 9093,
      "Ġekonomis": 9094,
      "ĠRonal": 9095,
      "ĠLin": 9096,
      "ĠHitam": 9097,
      "Ġmenghilang": 9098,
      "unjang": 9099,
      "Ġdompet": 9100,
      "ĠPH": 9101,
      "sense": 9102,
      "erasi": 9103,
      "ĠAss": 9104,
      "Ġkronis": 9105,
      "Ġbendera": 9106,
      "Ġpadi": 9107,
      "sing": 9108,
      "siapa": 9109,
      "Ġkeringat": 9110,
      "EO": 9111,
      "visi": 9112,
      "teriak": 9113,
      "ĠKeputusan": 9114,
      "Ġmengantisipasi": 9115,
      "oid": 9116,
      "ĠYay": 9117,
      "Ġgames": 9118,
      "abisan": 9119,
      "Ġkum": 9120,
      "Ġmemprediksi": 9121,
      "Ġlangka": 9122,
      "Ġdibidang": 9123,
      "Ġinstitusi": 9124,
      "Ġanggur": 9125,
      "atangani": 9126,
      "Ġseharga": 9127,
      "Ġtir": 9128,
      "Ġkenikmatan": 9129,
      "rof": 9130,
      "Ġdikab": 9131,
      "okrat": 9132,
      "ĠSol": 9133,
      "antumkan": 9134,
      "ĠFit": 9135,
      "asilitasi": 9136,
      "ĠSungguh": 9137,
      "tak": 9138,
      "Ġtingginya": 9139,
      "Ġbursa": 9140,
      "Ġhubungannya": 9141,
      "Ġdidesain": 9142,
      "ĠCuma": 9143,
      "ĠCepat": 9144,
      "Ġmodifikasi": 9145,
      "estina": 9146,
      "Ġdibagikan": 9147,
      "ĠLain": 9148,
      "Jangan": 9149,
      "Ġperahu": 9150,
      "Ġasap": 9151,
      "Ġterbakar": 9152,
      "unch": 9153,
      "ĠCek": 9154,
      "Ġkasur": 9155,
      "esm": 9156,
      "Ġstar": 9157,
      "Ġmenghambat": 9158,
      "ĠJi": 9159,
      "Ġpemak": 9160,
      "Ġgil": 9161,
      "ontak": 9162,
      "Ġane": 9163,
      "Ġpengend": 9164,
      "Ġtempuh": 9165,
      "ayangkan": 9166,
      "ondon": 9167,
      "Ġpelabuhan": 9168,
      "Ġanimasi": 9169,
      "Ġjaj": 9170,
      "obaan": 9171,
      "endang": 9172,
      "Ġbersalah": 9173,
      "Ġberkendara": 9174,
      "qq": 9175,
      "Ġmenawan": 9176,
      "Ġsopan": 9177,
      "ĠTip": 9178,
      "Ġmelekat": 9179,
      "ĠTelkom": 9180,
      "Ġtertera": 9181,
      "aleg": 9182,
      "ĠPenulis": 9183,
      "angkali": 9184,
      "tig": 9185,
      "Ġdigemari": 9186,
      "Kep": 9187,
      "lum": 9188,
      "udin": 9189,
      "'.": 9190,
      "Ġsepakat": 9191,
      "angkitkan": 9192,
      "Ġtangkas": 9193,
      "ultasi": 9194,
      "Ġmemberitahu": 9195,
      "Ġharam": 9196,
      "ĠDulu": 9197,
      "Ġdown": 9198,
      "bur": 9199,
      "lamasi": 9200,
      "rom": 9201,
      "ĠPerempuan": 9202,
      "ĠCV": 9203,
      "Ġ400": 9204,
      "Ġpengakuan": 9205,
      "Ġaut": 9206,
      "Ġketerbatasan": 9207,
      "ĠAngkatan": 9208,
      "Ġstand": 9209,
      "injau": 9210,
      "Ġpengantin": 9211,
      "ĠPon": 9212,
      "ahtera": 9213,
      "Ġalasannya": 9214,
      "__": 9215,
      "Ñģ": 9216,
      "ture": 9217,
      "eritanya": 9218,
      "Ġmenguji": 9219,
      "Ġperadangan": 9220,
      "aitun": 9221,
      "Ġkonveksi": 9222,
      "ĠDist": 9223,
[...]
